node {
  name: "Const"
  op: "Const"
  attr {
    key: "dtype"
    value {
      type: DT_FLOAT
    }
  }
  attr {
    key: "value"
    value {
      tensor {
        dtype: DT_FLOAT
        tensor_shape {
          dim {
            size: 5477
          }
          dim {
            size: 6
          }
        }
        tensor_content: ";\344\266\276F\224\366=\312\302\227\275\375\207\034\277\221~\373=\3540\246\274\344I\242\276\2406\252\274\205\317\026=\226!\016\277E\330\360\275\211\227\247\274\273~\321\276S\")>PU\241=\014\007*\277\326\377\031>k,\341<\351}\243\276\226\315\234=3\375\222\274\0054\001\277\261\303\270\275-\223a;\266\276\310\276u\253\347=V\361\306=+\023\016\277\333OF\275\\\314O<\220N\235\276\001\0269=\220\277\224=\302\372\017\277\252\177\220<^\201h=\231d\224\276?\221\'=\204+\240\273`\345\010\277q\251\n=eQX<\216\257\215\276\215$\301<\016\300F=\310\007\005\277\365\021\370<\371i\334<\000\214\267\276-&\366=\201A\222\275\257\231\034\277\034\360\371=Y\375\221\274R,\327\276t\230/>\373\352j=f\332&\277\351`\035>VJ\317<\225\232\275\276\331\010\004>\263\230\330=\261\212\017\2779EG\275T\341\317;\001\373\210\276l\320\227<\367\257,>\255/*\277%\257.\276\366\264C\276\265\340\325\276\020XY>\265\374\300=`Y!\277\253!Q>O[\203=`\002\267\2767O\365=\366\010\225\275\354\022\035\277 \014\374=\343\245\233\274\017(\313\276\232%!>@\371\233=t\265%\277l[\024>\376e\367<\"\375\266\276WC\342=\314\262\207\275C9\031\277\351H\356=\260\345\025\274\212\037\303\276\214\2432=\213\304\244=\203\300\"\277)\260\200=\036\033\201<T\000\274\276y\221\t=\r\0279<\020#\034\277\321\260X=\321\312=;\212\253\312\276\024\347(=\r\212f=[|\"\277\3168\215=}\3203\274\031\255\243\276j/\242=\360R\352\273\022N\003\277\223\337\302\275\007b\331\2734\235\235\276\201&\002>d\351C=\356%\005\277\177M\326=*\035,=\221\355\214\276zS\021=\207\302\'=5F\013\277\363\314K=:\037\236<\367u\240\276\332\346F\273\020=\311=0d5\277\354/{\276\005\213C\276\351C\227\276\356\n\375<d\351\003=\304\316\014\277\345\233\355\275%X\234\274-x\241\276?\377\275<\312\213\314</4\017\277/\300\376\275\241\367\006\275\336\345b\276?\3102=\357rQ>\236^\371\276\205\231\266<\201\351t\275\375\202}\276\001\2477=\275\214b>\301n\310\276\264v\033\275\232\316F\277\315\344\213\276D\371\002=\235\021e=Q\332\003\277\273\016\325<\261\301\002=\244\215\303\276p\224\034>\316\214\236=\367\351 \277\343\307\030>\352\260\002=\304B\235\276\214\333\350=I\236\213=U\023\364\276\377\225U\275\005\250)\274\211\265\250\276\264\314\202=@\373\321=TW6\277\261\026\337\275_\014\005\276\035\346\313\276rm(>\214\367\203=\320a&\277\016\370\034>VJ\317<8J\236\276\013\n\003<i\035\265=~W\014\277S\005C\276;\310k\275\221\355\214\2768e\356<\326\306X=\375\366\005\277\320\r\315<U\277\322<r\247\344\276J\177o=P\340\035=\000\343!\277\311\217x=\262,\230:\363T\267\276\321t\366=\271\372\221\275\200\361\034\277\357\217\367=\211\353\230\274\346\226\226\276\244\251^=!\347\275=\361\021\t\277\333\340\004=5)\205=\t\247\245\276<J%=E\022\275=3\033\024\277\030\230\225<\232\224\202=\356%\275\276\333\247#>\231\201J<\025W\035\277\271\2455>v\337\261<\232\231\231\276\016-\362=\275T\214=\322\343\007\277\2613\005>@\240s=\260r\250\276\031\003k;\264\307\313=(a6\277\231*X\276\223\343N\276b\276\254\276!\345\007>H\342e=\332\376\r\277\024y\022>{k\340<\302\300\303\276\347\343\032>\022\275\254=\217\302%\277&\252\027>\3500\337<h\\\250\276J\264d<\235\021E>\n\327\003\276\024\256g\276io\210\277\362\230\241\276\255K\r\2733\305\274=\216\222W\277\337l\203\276\255\243\232\276/\372\252\276\200\324\006>\0109o=b\241\016\277)\263\001>WAL=\252\267\246\276M\363\016>.\0353=;\374\005\277e\001\023>9E\007=`v\257\276\250\343\021>\034\315\021=\215\227\016\277\032Q\032>\251\335\257;~5\267\2768\276\366=\324\236\222\275\374\373\034\277?\251\366=\366\266\231\274\313-\315\276\nh\">l\313\240=_A*\277\375\202\035>{\210\306<\036\334\315\276\0216\234=<\336\244=\204*\r\277YN\202\275\333\207<<\371\332\203\276R|\374<YL,>\315;\026\277\357\254\335\275\001\023\030\276\334c\311\276\214J*=M\334j=\341\013#\277\202\215\213=\317\300H\274\303G\244\276I\327\014>\201{^=\'\024\n\277ep\024>\364P\033=\267\177\265\276\3372\347=\316m\242\275\244\344\035\277\310\315\360=8\363\253\274d\036\311\276\257\010\036>\263]\241=\013)\'\277\243u\024>\034\352\367<d@\266\276\217S\364=\030\007\227\275\317\367\033\277\367u\000>\030}\205\274\035 \310\276\234m\016>\315\221\225\274\351C\037\2771\2619>\363Y\036<\304Z\214\276\374\305\354<7\246\007>y\006\r\277\010V\325<\351D\202=\253&\250\276YNB=\233u\306=\365\363\026\277l@\204<\2068V=\310\357\235\276\032i)=}A\013=\351\016\022\277\207\212q=;\033\362<L\032\223\276\262\364!=\243\217y\273\335\007\010\277\r\306\010=Y\212d<\264<\217\276\324)\017=XTD=\274\\\004\277m\376\337<\232\322\372<\255n\225\276p\'Q=\275\306\016>\235.;\277\212\216\344\275w\204\023\276\273~\321\276\362$)>\231\274\241=\014\007*\277sc\032>k,\341<(,\321\276\022\2767=\256e\222=1B \277\241\331u=\031\306\335\271\345\325\311\276{-h=\361+V\274\000\221\036\277\307):=r\027!\275\356\010\227\276\r7 =p[\033=\304Z\014\277\314\317M=\242F\241<_\007\236\276\321t6=Y0\261=\332U\020\277v\026\275<\214\2401=\2549\300\276c\t+=\025R\376=\277\232\003>\017({\276\017\234\313\277|\017\227\276\277\267)=\320\017#\275\217\215\010\277\315W\t=\306Oc<\315;\236\276.\3766=\220\330\256==\362\017\277\371d\305<_@/=\212\260\261\276\232\262\263=\000\002V=\326V\004\277-`\002\276\263\010\305; \230c\276}\3152=\357rQ>\236^\371\276\205\231\266<\243\315q\275\010\003\237\276f\332\236=\000\217\250\273t{\001\277\331\007\271\275\35790;\2505\235\276\002\360\317<\256\330?>\r7\000>=,t\276\017\234\313\277\304%\327\276\310\007]>\202\035\277=\307F \277\031\347O>\231a\203=i\251\274\276\2075\265=\021\3770\275\\Z\r\277\034\n\037\275\214\367\343\274v\340\274\276\273\355\">_\317\327;\207m\033\277U\336.>-x\321<j\373\247\276\235K\021>\252~%=xb\006\277\371\332\023>d\346\002=+\336\230\276\364oW=\311v\276<\254\220\n\277l\355}=K\254\214<Q\245\266\276\201!\353=0\363\235\275uY\034\277\225\361\357=\344\371\214\274/n\243\276\013{\332=\215\264\324\274\201\225\013\277\177L+\275j\365U\274\265\303\317\276\320\017#>>>\241=K\253)\277\214\241\034>\366(\334<(I\267\276\247\311\014=#\276\323=\002\202!\277|\'f=7o\234\273\345~\267\276cD\"= \014\374=\376` \277\213T\030\276\001\373\350\275\2176\316\276\313-->\034\014u=\270;#\277\035\217\031>o\235\377<k\267}\276!\261\035=\026\030\022>1\010\374\276\347:\315\275\024Y\353<)\256\232\276\004!Y=:\036\263<;\302\t\277/Q}=\276\024\236<<\203\226\276e4\362<\1772\006=Y\027\017\277\257_\360\275\276/\256\274\247\263\223\276\212\307\005=6\002\361=\373y\013\277d\036\371<\377\314\200=\317\367\263\276\020#\004>CWb\275\3750\032\277:\006\004>@\276\204\274\250W\272\276\267\227\264=\331Z\037\275\215\321\n\2771\232\025\275\037J\264\274#\025\226\276\\\034U=x}f<\005\027\013\277\222?\030=\2411\023\274\205%\276\276%z\331=\026i\202\275\231*\020\277\177h&\275Ra\354\2743\371\266\276`\223\365=\247\224\227\275\354\022\035\277 \014\374=\343\245\233\274\336\345b\276?\3102=\357rQ>\236^\371\276\205\231\266<\201\351t\275\rq\274\276iW!>\205\2316<o\022\033\277\230\300->\247\257\347<\367\036\276\276\342#\">\240\3763<2\217\034\277!\2602>W\263\316<k`\233\276N\177v<\033\327\277=\251\274\r\277\t\371 \276?\306\\\275\\\346\224\276\3749E=\355+\217<\316\215\t\277<l\"=\214d\017\274\365J\311\276\026M\347=\223\212\306=\267\356\016\277{\364F\275\030\007\027<}\\\253\276\223\035\333=W&\034>\254\312\026\277\025\346\275=\333\367\310=c\177\231\276Z\330\023>_\355h=\263\230\010\277\211{L>=\327\367<\304%\327\276\310\007]>\202\035\277=\307F \277\312\375N>\211\320\210=4\021\266\276\311q\347= &\241\275\236)\034\277I\205\361=iR\212\274\026j\235\276\241\206/=\343\2136=\003}\022\277\216\\w=@\333\352<\342\314\317\276\261P+>/\243\230=\361.\'\277\315\006\031>&\034\372<T\343\345\276\321\005U>.\346\247=\244\210$\277o*r>\303\273\034=\001\366\221\276\364\305\336<\032\027.>\313\276+\277H\334\343\275?t!\276\021\031\266\276\340LL=o\365|>\001\301\034\276\267\265\245=\017\234\313\277+\336\230\276\364oW=\311v\276<\334K\n\277\310\262\200=\246D\222<\234\212\244\276\016O\357=\374\245\005=\346\313\003\277\201C\010>\315\223k=qU\231\276\344f\370=\204G\033=\243@\007\277W[\021>\234\333D=T\343\345\276\321\005U>.\346\247=Y\372(\277\347\030p>\214\2432=\224\336\247\2761\266\020>\330\0140=:\006\004\277\3544\022>\013\266\021=m\255\277\276nQ&>s\203!<\216\257\035\2778\0202>\3022\266<\331Z\217\276\342\002P<\036\341\024> $\023\277\310\315P\276Qf#\276\346W\243\276o\267\304=K=K=-\354\371\276\022\372Y\275\351\020\270\274a\340\251\276\212\345\326=/\300\036>(\017\023\277\205\264\306=5c\321=1\261\211\276\326XB<\3441#>s\2356\277\260\311Z\276\255\335v\276M2\242\276\303\273\034=q\313\307=\341\356\024\277\304_\223<\202\217\201=\373\"\221\276\246\r\007=Uj\366=\235F\n\277\325Z\030<\177iQ=vq\213\276\002f><\032n >\366E\322\276\317\367S\276\314]\233\276\271\302\313\276\3750\">\252\266\233=\203i(\277\205\266\034>I\204\306<\235\235\274\276\023a#>\241\277P<\331w\035\277\306\3345>\260\310\257<\253\262\217\276\022\240\246<\263{2>\030&\033\277]\341\035\276}\320\023\276(I\227\276\234P\010=\357\215\301=\226C\013\2775\356M<\300\263}=\301\255\233\276\217\245\217<\027f\301=\226&\005\277\tP\023\276v\302\313\274\272\332\212\276\035qH<M\333\037>\226&\345\276\323\274c\276\010=\233\276\234\247\212\276\301\032\347<8\025\t>w\204\013\277\016\022\242;D\027T=C\347\305\276\366\321\351=\317\275\307=W\354\017\277\016,G\275&\344\003<\350\202\252\276(\014\312=\333k\241=\206\311\364\276\313K~\274\n\024\261\272\036\376\232\276\376_5=34\036=\231d\014\277\271\210o=K\352\004=\321\256\242\276\r\251\242\274A-\006=\375\366\r\277t\007\361\275\267\325\254\274\252\202\261\276x\234\002>rm\350=\331\224\023\277`\347\306=S%\212=\301n\230\2767\030*=>Y\261\274\362\014\n\277/1\026=en><\254V\226\276\230nR=x}f<\204\323\n\277\202\221\027=%Y\007\274\362\322\235\276\226\315\234=\251P]\273\375\237\003\277O;\274\275\237\216G\273\320\325\306\276\035 \030=g\357\014=h\005&\277\253\354{=\271\251\201\273\227\250\236\276\374p\020<\2178\304=\3058\017\277\256dG\276\3578\205\275\261\247\215\276\252\267\006=\353\254V=\356=\004\277\322o\337<4g\375<\224\207\305\276\212\260!>\313+\227=&\344#\277:\314\027>\356Z\002=/Q\315\276m\342$>\2405\237=\200\232*\277y\036\034>\275\215\315<\006\365\275\276^\235#>KY\006<\272\332\032\277\245\367->\211x\353<\331\316\267\276-&\366=\267\354\220\275\257\261\033\277Y\206\370=sG\177\2743\371\266\276`\223\365=\247\224\227\275\354\022\035\277 \014\374=\343\245\233\274E\365\246\276\277,\355;\206\221\276=\352\312/\277\310AI\276g\362-\276\212\260\261\276\360\024\262=\000\002V=\326V\004\277-`\002\276\263\010\305;\217\344\222\2764/\007=\260\033\366=\220\332\014\277eQ\330<\360\212\200=X9\264\276\217o\357<\361,\301=\372~\"\277V\325\213=\307JL\274\037\364\214\276\202\312\370<\262\023^=\215\234\005\277Ts\271<\342\311\356<\203/\214\276@h\275<\336V\372<3P\001\277K\345\355\275\377\010\303\273\031\004\266\276\242\013\352=\262e\231\275@\331\034\277+\331\361=1\t\227\274\251j\242\276R\017\321\272\366\263\270=@\207I\277\260=s\276\303G\204\276\213O\261\276\374\373\014=\272\203\030>\370\245\006\277\357\376\030\276\001\373\350\2756\260u\276G\005\316<p%\373=Z\r\001\277\005\300\370\275\364\212\247<\001\023\310\276\342\261_=\211\265\370\273\203\372\036\277Q\370,=y!\035\275\tPs\276\310]\004<\302\204\221=<\332\000\277\251\301\364\275Y\276\256<\272\024\267\276\247\313\002>4L\215\275\'\367\033\277\366#\005>\254:\253\274\221\017\232\276\022\365\002=\320\271\333<@M\r\277^\327\357\275fi\247\274\357\254\235\276\356=\234=\230\336~\273\2034\003\277=\270\273\275\033\017\266\272\313\241\225\276\204\326C=]\214\201<\323j\010\277\331y\033=\306\211\257\273\207\304\275\276\021S\">oc3<\324\267\034\277\276\0233>$\t\302<\203\372\306\276\302i!>^\362\237=m\342$\277R\355\023>9\227\342<\3377\236\276%u\002>\364\334B=\347\251\006\277\332\217\324=\376++=\360\304\254\276^\205\024=]\026\323=2\003\025\277\033I\202<w\020;=\360\334{\276\272\023\214=\370\302$>\r7\000\277\231\330\374<\034\2271=it\267\276\206=\r>\315\314L\275\246\355\027\277\336\002\t>]\340\362\273>?\314\276=D#>\2512\254=\252C&\277\352\004\024>j\024\022=\260r\230\276`\000\341</\300>>\237<\014\276\222\313?\276aT\202\277\203n\237\2764.\034>\005oH=\375\207\014\277\321\005U>(\321\222<F%\265\276\"l\370=\257\\o\275\366(\034\277\3122\004>\351c\276\274\357\254\235\276\356=\234=\230\336~\273\2034\003\277=\270\273\275\033\017\266\272g\362\275\276>\263$>\221ck<D\206\035\277=\n7>Rd\255<\335\230\276\276?R$>\307*%<6\310\034\277\210K.>B\010\310<\331Z\217\276\342\002P<\036\341\024> $\023\277\310\315P\276Qf#\276\241\204\211\276q\254\213<\347\344\205=\231G\006\277\010\350\276<\007%\314<U\366\255\276\343\215\014>5E\200=\027\361\r\277\310\322\007>\335\224\222=\333\026\225\276\353\341\013=\334\235\365=?\306\014\277\277d\343<o\274{=P\302\214\276MN\355<\220\334Z=\375\366\005\277-\t\320<U\277\322<w\020\253\276\374\343\035>|E\267\274d\006\n\277}y!>\376\200\007=\242(\220\276\325w>=&\375\275;\326\342\003\277\221+u=\264!\177< \230\303\276\240\211\360=\224\275\305=\270#\014\277=\200E\275\347\306t<\377\312\232\276\246\272\000=?\035\317=\225\324\t\277\232\224\002=Eh\204=\224\023\315\276\272N#>\260\214\255=\210F\'\277\316\307\025>\350\204\020=:@\220\276!:D=\261\025\264<\342\314\007\277=bt=W&|<\273~\241\276N\264\253\274}u\025=\3711\016\277\305\217\361\275\214\274\254\274\377\004\267\276\245\203\365=\366]\221\275!\007\035\277\030\262\372=\002\273\232\274rP\322\2769\264(>\014\346\217=\314(&\277\365\333\027>\254R\372<`v\217\276y\006M=\373\352\252<\315#\007\277\306Nx=\002\331k<\021\215\276\276KY&>\265l-<6\260\035\277\305=6>Y\340\253<\373W\226\276\317\021\371<\204H\006=\306\304\016\277\1770\360\275\033\330\252\274\260\254\204\276\243\3151=\31667>\350\237\360\276h\350\037<\017\321(\276h\320\240\276\247>\020\273\354\367\304=;\374%\277{\367g\276?:\025\276\247\263\223\276\212\307\005=6\002\361=\373y\013\277d\036\371<\377\314\200=\337\375\241\276\3271\256:\317\021\271=DL9\277\247\350h\276\262\272U\276\273~\321\276S\")>PU\241=\014\007*\277\326\377\031>k,\341<\275\035\241\276\342\004\246\274){\013=\227\034\017\277B\t\363\275\207\303\322\274\300\262\262\276\206\033\020>Ksk=\246\'\024\277\341b\005>\340\275#=\366\356\317\276\177\366#>>>\241=%\222(\277\226[\032>X\343\354<\337\032\250\276\036\207A;\365\020\315=<\367>\277\236\322a\276\263\357j\276\361F\266\276\227\342\352=\376|\233\275\252`\034\277\263\014\361=\236\014\216\274\031\034\225\276\3227)=R\230\367\273\177\244\010\277\341\010\022=\016\363e<\255i\236\276\336<\325=,)w=\201\225\363\276L\215P\275l\261[\274/\213\251\276\021\251i=\262F\235=\031\004\026\277\035\037\255<\324\322\\=\211\357\224\276\255nu=\327\243\020>a\032&\277\317j\301\275G\346\321\275R,\327\276\033\3650>\373\352j=\250\030\'\277 {\035>\363\003\327<<\240\234\276\217\030\275<\3125\005=4\205\016\277^\327\357\275\032\336\254\2740\236\241\276\362\352\334=_\357\376=\217\344\n\277\035\217\271=\373:\360=A\232\241\276od\236\274\331[\n=\355\365\016\277X\312\362\275N_\317\274\302/\265\276\212\260\341=\210\020\227\275_A\032\277\335\322\352=\2073?\274n\300\267\276\222y\004>\333L\205\275\200\232\032\277o\360\005>g,\232\274<\240\234\276Mf\274<\3125\005=\365\363\016\277$\177\360\275\335\227\263\274\014\315\245\2765$\356=\271S\372=\262.\026\277\332 \323=+\373n=\027e\306\276\371\024 >\304>\241=\255\206$\277\035r\023>}\226\347<\342#\222\276\3641\037=\244\2148\272\003&\010\277\364\300\007=\353q_<,\232\276\276pB!>\033\022w<\313\234\036\277n\2132>\274 \242<\225\016\266\276f\334\024=!\002\316=9\013#\277z5\200=\255Lx<\270\006\226\276\r\032\372<\221\231\013=\004V\016\277{\203\357\275\347\214\250\274\344N\331\276\332\311`>\351F\270=.\004!\277\212\310P>7\211\201=\002\361\272\276\265T\036>\220\202\247<\032\213\036\277k+6>\323\277\244<]\334\226\276\204\360\010>\257Z\331=p\224\014\277\231\323\005>1\267\233=\330G\327\276*\251\263=\203\302\240=\361\021\021\277-\317\203\275\037\367-<\301V\311\276_\177R=z\342\231=\200`\036\277.\214t=\001\245\241;)\226\233\276#2,<\312\210\253=\021\374\377\276\201\262)\276\030\315J\274\214g\220\276\316\212\250<\357\3412>\235\200&\277)\\/\276\246\nF\276\'1\250\276\325z?=1\264\232=!v\016\277\222tM<\351\016\202=<\367\236\276\021\250\236=\002a\247\273\345a\001\277\211\356\271\275\245\022\036:\242\013\232\276\036\211W=^\362\277<\336q\n\277p?\200=\036\306\244<\374\000\244\276[?==\205\352f\274\312\032\r\277L\2475=\334\202\245<\313\020\267\276\"\305@=2\003\225<:X\037\277e\304E=k\017\373\274}\\\233\276\003\225\021>Xqj=\223\251\n\277\244\210L>1_\336<\210F\267\276\221\320\026=Z\240\275=\234\334\'\277c\265y=C\034k<\3127\233\276\213\032L=X\344\267=r3\014\277\330\364\240<\202X6=Y\206\230\276\372\356V=L\214\345<F\316\n\277\361b\201=K\310\207<:z\214\276\217\374\001=\007\232O=\375\207\004\2770f\313<\321X\373<\252\267\266\276>\313\363=\361\274\224\275\253\354\033\277a\340\371=\372`\231\274\324`\232\276\221\265F=\351\017M<\027\202\014\277\250\213\024=\221\325\255\273\013{\212\276\375gM<v\375\">\000W\022\277E\rF\276\351`=\276\352\t\333\276\221F\305=\321\037\232=1\231\022\277\'\024\202\275\342\222\343;}\263\255\276g\270\001>rm\350=o\201\024\277`\347\306=\255\277\205=\204d\241\276\343\245\233\274}\257!=\024?\016\277\030\t\355\275\336\221\261\274\342#\222\276\3641\037=\244\2148\272\003&\010\277\364\300\007=\353q_<\373\005\333\276->e>\354g\261=\375\301 \277\236{O>7\211\201=/\335\244\276\021\337\t=\002\234^\274N\356\007\277\"7\303<B\322\247<\\\254\270\276\234m\356=\277\360\212\275\336q\032\277M\333\377=u\224\203\274\351}\243\276\226\315\234=3\375\222\274\0054\001\277\261\303\270\275-\223a;\3058\277\276KY&>\010X+<-\262\035\277d@6>g\266\253<6\223\237\2767l\033>,GH=\0358\017\277\344fX>!\314\355<\"\216\245\276\242\356\003>B\010H=\245f\007\277\025\251\020>\'\332U=\361\327\304\276g\n\035>\311t\250=t\230\'\277\"\375\026>\273G\266<\314\227\327\276>\351D=\361\364\n=\206\346\"\277\375.\214=\t\251[\274\374\035\252\276,\274\313=1|\244=\035=\356\276\003\260\201\274\343R\025<\252e\233\276\365\241K=\305\033\271=\215\234\r\277\275\376\244<\375\240.=\274?\256\276F\323\031=?r+=\222\313\037\277\260\035L=\215\'\002\275?\000\251\276\037J4;\304Z\274=\250\251M\277\332\003m\276\356\010\207\276E\273\252\276\316\374\352=mV\375=\310\352\016\277/\300\276=\004\220\332=\320\'\242\276\\\033\352=\204\326C=\216@\004\277\0221\005>\201\005p=}y\221\276\362\3238=GU\023>\346\221W\277\nh\002\276!\345g\276/n\243\276\013{\332=\215\264\324\274\201\225\013\277\177L+\275j\365U\274\242z\273\276/\210\210=b\201\217=L\303\010\277\233\256\307\275q\347B\273\315\001\302\2769\234\031>&Q\257=9\356$\277\316\307\025>\252C\356<\210F\267\276\221\320\026=Z\240\275=\234\334\'\277\026O}=C\034k<\247\\\301\276\274\346\025=\3267\220=\023~!\277\233\217\213=\344h\016\274\216\257\215\276\231\323\345<\016\300F=xb\006\277g\'\003=\315\217\277<\367\307\253\276\022\331\207\2742q+\274\311Y\020\277#J\373\275\364j\000\275\322\000\236\276^-7=\341\322\221=Q\024\020\277!w\221<\235\273]=\"\216\205\276v\3067=`\3450>A\267\367\276-\224\314<\n\204\235\273P\252\235\276\200\326\234=\235\202|\273\370S\003\277\001\276\273\275\3647\241\272\310\007\215\276\317\272\006=\275\337h=\254s\004\277\300\351\335<\254\343\370<5c\261\276N\264\013>0\327b=\211{\024\277DL\t>ka\026=!\260\302\276O;\034>\333\374\237=\214g \277\343\307\030>\'\277\005=\374\214\313\276\324\235g=#\236\354\274R\270\036\277\250TI=\222A\356\274\251\373\240\276k\361\351=\304\013\242<\275\030\n\277\013{\032>\377\354\007=6\037\247\276O\314:=\023~\311=\005i\026\277^i\231<\363\037R=$\013\270\276Di\357=\316\247\216\275j\301\033\277\217S\364=\036\033\201\274~\343\233\276\032\213\346=2\037\220=i\214\366\276{\333L\275\013c\213\274\313\370\307\276\177\332h=]\247\021\274vO\036\277\356\230:=\223Q%\275\364\340\236\276\335x7=\013\322\254=\311\345\017\277q:\311<\026\0302=\031\255\243\276j/\242=\360R\352\273\022N\003\277\223\337\302\275\007b\331\273\227\305\244\276\352<\252\274\035\344\365<\205%\016\277m\034\361\275}$\245\274}y\321\276\247\350(>pA\226=\211\322&\277\2657\030>\003&\360<B\317\266\276\346\255:=\205zz<\376e\037\277\336tK=\037\366\002\275\'\367{\276h\004\033=&\374\022>1\010\374\276\347:\315\275\024Y\353<Y\206\230\276\372\356V=L\214\345<F\316\n\277\361b\201=K\310\207<\242\013\232\276\036\211W=^\362\277<\336q\n\277p?\200=\036\306\244<\223R\320\276+\241;=\031\342\230=Z\022 \277\212\257v=\254\305\2476\341(\231\276\300&\353=\223\002\213=\245,\363\276\202\311M\275:<\204\274\313\020\347\276\206\223t=Z\233\006=_^ \277\360\242o=\300\3178\273\000\214\267\276-&\366=\201A\222\275\257\231\034\277\034\360\371=Y\375\221\274\265\375\233\2764h\350=\r\034\220=\310\322\367\276\222\354Q\275p_\207\274\340\271\227\276\370o^=\211{\014>\231*0\277\177\366\303\275\026j\r\2764\205\236\2760\360\334=\310\315\360=*\035\014\277n\277\274=\370\372\272=\241\333\253\276 \264\236<\356\316:>\304\261\016\276\315XT\276nL_\277M2\242\276\303\273\034=q\313\307=\341\356\024\277\304_\223<\202\217\201=:@\220\276!:D=\261\025\264<\342\314\007\277=bt=W&|<Xs\320\276j\023\'>\242\355\230=\376}&\277\231*\030>\r\301\361<\354i\227\276\255nu=\352x\014>\263\014!\277I\206\274\275\376\272\263\275\302i\321\276#\363(>PU\241=\000\343)\277\326\377\031>k,\341<[\231\300\276\307/<=^\235\343=T\000$\277\235.+\276\257\224E\276\313-\315\276\370\302$>l\313\240=;6*\277y\036\034>\234M\307<x\013\224\276@2\035=\330}G:Q\024\010\277\325{*=Y\300\204<\365J\311\276\026M\347=\223\212\306=\267\356\016\277{\364F\275\030\007\027<5F\233\276kbA=\333j\266=\244\210\014\277\340H\240<\222@C=I\364\222\276\255l\037=b\201\257\272\004!\t\277\342!\014=`\345P< \230\303\276\240\211\360=\224\275\305=\270#\014\277=\200E\275\347\306t<6\037\247\276O\314:=\023~\311=\005i\026\277^i\231<\363\037R=`\345\240\276R\014\220:I\363\307=\321\"+\277\232_m\276\306\205#\276\232%\321\276\245\332\'>\021\343\225=\2402&\277\353\342\026>\2301\005=U\366\235\276\251\370?=\321\222G<F\316\n\277n\336x=\252)I<Y\300d\276H\300(=2wM>\'\332\365\276T\374\337<\336\257B=\242(\300\276\374\032I=Y\205\3158Y\213\037\277s\201K=\376\'\377\274?\343\262\276o\272%=#\367\364<\340\271\037\277Q\364@=\276L\024\275k\202\230\276\311\346*=\2551\310=F\224\016\277\245\330Q<\010wg=[\231\300\276\307/<=^\235\343=T\000$\277\235.+\276\257\224E\276\300[\240\276\277|r=y\254\231=A\274\376\276\026M\347\274\227\250\336<\335\315\243\276\245\240\333=}\316\335\274k`\013\277/0+\275\261\211L\274!Y\240\276\277)l=\340+\232=\370S\003\2771\323\366\274RC\233<\315\001\302\2769\234\031>&Q\257=o\201$\277D\206\025>\253^\376<\230i\253\276\027H\020>\216\003o=\006L\020\277\234\026\034>\231\201\312<Ll\236\276\263$ >\247?\273=W\004\027\277\007\266J>\rm\200=~\251\177\276S\314\301\274\025\037\237<\375\301\000\277qr\377\275\252\324l<\202\377\235\276\177M\326\272\316\374*>%\257\316>\335\352\231\276\017\234\313\277/4\227\276\234\030\022=\006\365\355=\002\324\014\277\277d\343<\2657x=\016\333\266\276\032\243\365=\250\031\222\275\366\264\033\277\024\226\370=\262\270\177\274\301n\250\276c\271e=\364j\240=\300\004\026\277\253\257\256<^\325Y=_A\312\276F|\347=\216;\305=]\334\016\277\363\350F\275.=\032<y\314\320\276\2613%>I+\236=\350\207)\277T:\030>\014Y\335<\000\343\211\276\375gM<v\375\">&\307-\277E\rF\276\351`=\276\314]\313\276\322\030\355=\210*\274==\233\r\277\234\302J\275\262\r\\<\026j\235\276\323\333\037=\343\2136=\003}\022\277\220\277t=\250\215\352<W[\321\276E\273*>\013a\225=P\215\'\277#J\033>y\002\341<\221D\277\276\344\240$>\272.\374;Z\360\032\277=~/>\364\374\351<\344,\234\276\223\306\350=\345\321\215=\302\300\363\276g\013H\275\262\2045\274\2343\222\276W\355\232<A\274\016>-\317#\277\336\346\215=\327\207u\274\255\335\226\276\225e\010>\277\016\334=b\276\014\277j\244\005>s\200\240=\001\366\221\276\364\305\336<\032\027.>\313\276+\277H\334\343\275?t!\276\271\031\256\276\005\335\336=T\251\031>b\241\026\277\014Y\275=\262\200\311=\'\367\273\276\023\362!>\345\227A<?\343\032\277}\263->\243\254\337<\325&\236\276r\0266=\317\205\261=.\034\020\277\"\246\304<-\315-=?\000\251\276\037J4;\304Z\274=\250\251M\277\332\003m\276\356\010\207\276\3377\236\276%u\002>\364\334B=\347\251\006\277\332\217\324=\376++=r\247\264\276\340LL=o\365|>\001\301\034\276\370\033\215=\017\234\313\277\377[\271\276\025R\376=4\276\217\275\'\367\033\277_\014\005>8\273\265\274\307)\312\276\326\310n=\206=m\274\030x\036\277?\2547=3\243\037\275\357\346\211\276\311Z\003=\276\336\375=\340g\014\277\260\2209<9\017g=\3578\245\276f\022\365;\360\367\253=:]\016\277y\036\034\276\021\377p\275\014\345\224\276\363!(=X\377\347\273\177\244\010\2775\322\022=\317\243b<\234\247\212\276\301\032\347<8\025\t>w\204\013\277\016\022\242;D\027T=\242z\273\276/\210\210=b\201\217=L\303\010\277\233\256\307\275q\347B\273\241\241\237\2764g\235=F\010\217\2730\022\002\277\343\307\270\275\241\367F; $\213\276x\265\\<l&\037>\346\005\330\276\223oV\276\311\037\214\276\021\215\216\276m\305\376<%\006\001>3\247\013\277\336T\244;[AS=K<\240\276\244p\375=\266\023e=\373:\010\277h\256\323=\025U?=.\312\234\276Pp\361=h$\202=U\301\010\277\243\314\006>\325uh=\200\324\266\276\242E\366=q8\223\275lC\035\277\266\204\374=UL\245\274%\222\310\276\321\256\">x\324\230=\317\332%\277\034\261\026>\372\354\000=T\343\345\276\321\005U>.\346\247=Y\372(\277\347\030p>\214\2432=Gr\211\276$\3561<\251\331#>\262\2357\277\347\306T\276\346\221_\276\235h\247\276\246\n\006>q\254\213=\034\316\014\277\304|\371=\326of=aTR\276=+)=\343\374M>_\322\370\276,g\357<t%B=\023I\244\276|\200n<\255\276\272=o\323\007\277Gr\031\276\351\357%\275\227\377\320\276^K(>\034\262\241=\337\211)\277\365J\031>\327\023\335<X9\264\276\217o\357<\361,\301=\372~\"\277V\325\213=\307JL\274\357r\201\276\246\232\331<\356Z\302=\207\371\002\277\242\177\002\276\265Q\035<\356%\275\276\333\247#>\231\201J<\025W\035\277\271\2455>v\337\261<\223W\267\276\\X7= \265I=\317\332\035\277@\211\317<\277,-=\362^\265\276\3372\347=\316m\242\275\244\344\035\277[\231\360=;V\251\274\2304\306\276\371\024 >\372(\243=g\362%\277\264Y\025>\352\\\321<b\333\322\276\033\3650>\026\024\206=\320\355%\277e\374\033>\332\221\352<\330G\327\276*\251\263=\203\302\240=\361\021\021\277-\317\203\275\037\367-<\221\017\232\276\022\365\002=\320\271\333<@M\r\277^\327\357\275fi\247\274.\034\250\276H\337d=\264Z\240=\\U\026\277\252F\257<4\277Z=\315\351R\276H\300(=2wM>G \376\276T\001\367<\350\0239=\203/\214\276@h\275<\336V\372<3P\001\277K\345\355\275\377\010\303\273\253x\263\276h\3525=\321A\227<\262F\035\277\'\367;=\336\314\350\274\000W\322\276\177\023*>\236#\222=;\344&\277x\321\027>V\236\000=&\344\243\276-|\235=1D\316\274f\240\002\277\243#\271\275Doq:E\273\272\276BC\037>\235\204R<\017\234\033\277\032\027.>\321\311\322<\262K\224\276&m*<\236&s\275\025\035\t\277\334\332\002=\251\2459<\213O\261\276\374\373\014=\272\203\030>\370\245\006\277\357\376\030\276\001\373\350\275>\"\226\276\026\246\357<F{\274=\315\351\n\277\324\271\242;d\221f=\341@\270\276vO\036=<\026\273=\2201\'\277\0219}=\235*_<_A\312\276F|\347=\216;\305=]\334\016\277\363\350F\275.=\032<\361c\234\276Q\241:=O\311\231=T5\021\277\002\232\210<\367\216Z=\007\231\224\276\232\321O=0\365\023>\254\255H\277`\260\333\275\373\313N\276Y\300d\276N\320&={\024N>\'\332\365\276T\374\337<\304\"F=\235c\260\276\336\216\020>W]G= \014\024\277\255L\370=\365\274\033=>?\314\276=D#>\2512\254=\252C&\277\352\004\024>j\024\022=C\377\244\276\336T\344=\033\233\235=\277}\r\277\030\354\006>\314}\222=/\372\232\276P\373-=A\236\035=_\007\016\277\253\227_=M\330\376<,\324\312\276\344\203\036>_\266\235=c\234\'\277\013^\024>\343o\373<\351\324\245\276\247\\\001>k\326\271=s\272\014\277\365\204\345=\357rQ=o\330\246\276\235\272\362=\220\205h<L7\t\277b\241\026>\252\2346=P\252\235\276\245I\351=\364\303\210=\266g\366\276\366\266Y\275\021\250~\274\033\022\307\276Y\302Z=\367\314\222\274H\247\036\277\363WH=\374\305\354\274\304%\327\276\310\007]>\202\035\277=\307F \277\031\347O>\231a\203=\252\267\246\276j\244\005>\304\\\262=eS\016\277\341\013\023>W\223\'=\264\253\320\276K\224==\237\315j=\223R \277\0161^=rpi<{I\243\276$(\376=\345aa=b\370\010\277\321\"\333=\353;?=\253\004\213\276\'\371\221<~\253u=|\017\007\277ke\302<`\222\312<\357\254\235\276\356=\234=\230\336~\273\2034\003\277=\270\273\275\033\017\266\272\376\324\270\276V\202E=:\314\027<\200\324\036\277A\016J=\322\307\374\274u<\306\276{k >\241,\234=\016\204$\277\365\333\027>dt\000=6\352\221\276\030[H=\304]\275<\375M\010\277Mh\022=\212\350\327\273g\355\266\276\362^\365=\315t\217\275z\245\034\277\376\324\370=!\346\222\274\370\210\270\276\035\311\005>Q\241z\275\306\371\033\277)\320\007>:\037\236\274 \230\303\276\240\211\360=\224\275\305=\270#\014\277=\200E\275\347\306t<\350\202\252\276(\014\312=\333k\241=\323\336\360\276s\274\202\274>\317\237;\276\274\320\276rm(>\363\222\177=j\023\'\277\027\361\035>Y\337\300<Lq\225\276\354\022\025>#\025\306\273\356B\003\277\\\311\016>\346\225+=@\336k\276}\3152=:]V>s.\325\276}x\226\2744K\022\277\340\363\203\276j\204\376<YL,>\315;\026\277\271\307\322\275\374\251\361\275\214g\220\276\316\212\250<\357\3412>\235\200&\277)\\/\276\246\nF\276L\216\233\276\217\245\217<\025\307\301=\226&\005\277\tP\023\276v\302\313\274\273~\321\276S\")>PU\241=\014\007*\277\326\377\031>k,\341<\255\206\244\276t^#=vR\277=\375\207\024\277>\312\210<\t\303\200=+M\252\276R)6=E\236d=\364O\000\277)?\351\275\2452E\274k\237\316\276Z\360\">Q\202\236=_A*\277\355\r\036>S\224\313<oG\270\276\374R\037>5\t^<\277+\032\277\241J->\330\362\312<\353\250\212\276\3332\340\273\261\301\302\274,e\001\277\256\201\355\275\214\235\360\273Z\273\255\276\211\007\024>\304\226^=\305\033\021\277\334)\035>\217\250\320<\247\\\301\276\n\271\022=M2\222=\237q!\277\330\274\212=\276\370\"\274\205\266\234\276\347\373\351=U\024\217=\256d\367\276.\344Q\2754J\227\274\316S\235\276\311\222\271<c\200\004=Z\273\r\277p\353\356\275Q\242\245\274\025R\236\276\021\036\355=\320_\210=B\317\366\276=\272Q\275\233:\217\274aTR\276\030\"\'=\337OM>\213\340\377\276\365\326\000=@\2079=2\311\330\276\263\353^=\355\3262\275=\233%\277\276\023\363\275&r\301\275\200\232\332\276\204d\201=a\245B=\235c \277\242&z=\320d\177;7\246\207\276B\320\321<a\246\r>W[\t\277\315\311\013<\2243T=d\351\223\276\320\360&=<\023\232\273\034\010\t\277m\377\n=R\017Q<v\211\232\276\251\244\016>\006\r}=8\020\n\277,+M>N_\317<6\260u\276G\005\316<p%\373=Z\r\001\277\005\300\370\275\364\212\247<\303G\244\276<\274\347;\303\240\254=%\006\021\277]m%\276;7\215\275WC\202\276r7\010<w\204\023> {\r\277&\337L\276C\342>\2765$\236\276\232]7=\307\274\256=\366\356\017\277\341b\305<\221D/=W[\321\276E\273*>\013a\225=P\215\'\277#J\033>y\002\341<\231d\224\276?\221\'=\204+\240\273`\345\010\277q\251\n=eQX<\203\372\306\276\302i!>^\362\237=m\342$\277R\355\023>9\227\342<N\234\274\276+\301\">\324\322\\<\025W\035\277\271\2455>v\337\261<\351+\250\276\2402\376=\026\371\265=\033*\016\277\230L\325=1\265e=\013A\216\276\rm\000=p\261\002>R\n\n\277\303\177:<\276\301W=\302\300\303\276\347\343\032>\022\275\254=\217\302%\277&\252\027>\3500\337<\001\373\210\2769c\230<Kv,>b\363)\277\270X1\276\032\206/\276L\216\213\276\004\255\000=\365\205P=\274W\005\277\006\205\301<^-\367<\320\325\306\276\035 \030=g\357\014=h\005&\277\253\354{=\271\251\201\2739\264\310\276\353n^=R\017Q\274\032\206\037\277\351\267/=7\216\030\275\310\007\215\276\317\272\006=\275\337h=\254s\004\277\300\351\335<\254\343\370<`\037\215\276@h\275<>[\007=\212<\001\277D\372\355\275\024u\346\273\234\247\212\276\301\032\347<8\025\t>w\204\013\277\016\022\242;D\027T=\t\026\267\276\343\210\365=\241\370\221\275!\007\035\277D4\372=\002\273\232\274\000W\322\276t{)>\236#\222=\032\213&\277\353\342\026>\030\005\001=\360\247\226\276\257_\360=I-\224=+0\364\276W@a\275p\352\203\274\242\013\232\276\036\211W=^\362\277<\336q\n\277w\364\177=\036\306\244<Q\024\230\276[yI=k\237\016>p|5\277D\206\325\275w\020[\276,\324\312\276hy\036>_\266\235=h\221%\277\273\325\023>y\"\010=\320\325\306\276\035 \030=g\357\014=h\005&\277\253\354{=\271\251\201\2732w\215\276\354\277\316<\177\302Y=\361\272\006\277\333k\301<n\247\255<5$\236\276\232]7=\307\274\256=\216\222\017\277R\322\303</\2062=\016\276\360\276e\213\204=I\330\267<,} \277\222ux=5F\353:\351\267\237\276G\254\005>t#,=\240\032\007\277e\337\325=\363\002,=\023I\244\276|\200n<\255\276\272=o\323\007\277Gr\031\276\351\357%\275pw\226\276f0\006=t\263\277=\323M\n\277p\013\026<\226Au=:@\220\276FCF=B\t\263<B>\010\277\353su=\216\221l<TR\307\276J\230\351=\264U\311=\346\"\016\2770\202F\275\352\005\037<\273~\321\276\362$)>\231\274\241=\014\007*\277sc\032>k,\341<\220k\303\276r\026\366=\313\333\321=\333\334\020\277S\263G\275gb\272;\377\004\267\276\356B\363=\013\357\222\275\253\354\033\277a\340\371=\247\006\232\274\324`\232\276\221\265F=\351\017M<\027\202\014\277\250\213\024=\221\325\255\273(I\267\276\247\311\014=#\276\323=\002\202!\277|\'f=7o\234\273\203/\254\276V\016\355=\362\315\366=^\327\017\277\023\357\300=\320D\330=\310\357\235\276\032i)=}A\013=\351\016\022\277\207\212q=;\033\362<\254\213\273\276\001\244\366=\204\330\271\275\367\006\037\2774\200\367=\337\246\277\274Ic\264\276fh<=\007a\256=UM\030\277\364\032\273<\007#v=\377\004\267\276\356B\363=\013\357\222\275\253\354\033\277a\340\371=\247\006\232\274~\030\301\276\2554)>\244\2148;\237\223\036\277\214\2046>NF\225<\204\360\250\276\217qE=\266\332\303=\366z\027\277\221b\200<\2068V=\3063\210\276\316\341\332<\013c\013>\237\310\013\277,D\207;\336\253V=\3274\277\276\340\204\">\254\033o<\306\304\036\277I\3642>\306\301\245<4K\222\276@\246\265<.X*\274]\371\374\276\005\250\351\2751\316_;\337\375\241\276\3271\256:\317\021\271=DL9\277\247\350h\276\262\272U\276,}\250\276\255Q\017>\005\370.=\236)\004\277\263\352\023>)_\020=c\234\237\276\020?\237=a\213\335\273d\006\002\277\237\254\270\275x\232L;0d\225\276\323\237\375<\207\375\276=r\304\n\277 `\255;\323\207n=6\260\245\276\223\304\022<\205&\251=\222\256\t\277\301n\030\276h\3474\275\250o\231\276\262\272U=\037-\316<\364\246\n\277\226B\200=(\327\224<\354\243\303\276\363\347[=\327\024H;\000\221\036\277\327\2075=3\243\037\275\216\222\207\276\313\021\262<\371\370\204=`\345\000\277\n\200\361\275\244\342\377\273\026\207\223\276\225~B=\016\366\246<\323j\010\277<l\"=jj\331\273/\300\256\276\037g\032=i\216,=U\331\037\277\354ML=\177\275\002\275%\314\244\276\027\270<=\340-\320=\372\270\026\277f\206\215<\367\224\\=\221\'\251\276\220\210\t>\220\025\234= ^\017\277\001\366\021>\321v\314<\347\343\232\276\013\265&<l\257\305=\030\317\030\277\356%M\276\271\303\306\275\356\010\227\276\r7 =p[\033=\304Z\014\277\314\317M=\242F\241<\260=\223\276\263\010E=Uj\026>\004s<\277\235\272\362\275!\352~\276a\211\307\276\321\256\">6\221\231=y\006%\277\253\317\025>\025\307\001=\005Q\227\276OXb=\276\365\301=\326\377\t\277!@\006=O\353v=\003\317\235\276\237\252\002=\014v\303;^h\016\2773\304\361\275\273\t\276\274\241\241\237\276\367\253\240=\227\345\353\273\230n\002\277\000R\273\275\252\2315\273\017(\313\276\232%!>@\371\233=t\265%\277l[\024>\376e\367<g\355\266\276\362^\365=\315t\217\275\177\336\034\277\"\375\366=\rr\227\274\306\026\222\276PV\014=`\223\365=n\213\n\277\256\021A<T\305T=\024\256\267\276\313\234\356=A\364\204\275\272\332\032\277lx\372=\236\006\214\274JF\236\276\207\301\234=\373=\261\273\255\027\003\277\367\221\273\275\347\340\231\272$\177\260\276\003x\013>\t\337{=\341\356\024\2770\r\003>P\035+==,\304\276\221b@=\360O\251=k}!\277\255\371q=y=\030\273\340\271\227\276\370o^=\211{\014>\231*0\277\177\366\303\275\026j\r\276sK\273\276M\276\031>\371\025\213=K\002\024\277\365\273\260=\022\205\226=\030\262\272\276\245\274\266=y\351&\275C\220\013\2771\232\025\275\346\262\321\274\273~\321\276S\")>PU\241=\014\007*\277\326\377\031>k,\341<\304Z\214\276\374\305\354<7\246\007>y\006\r\277\010V\325<\351D\202=\337l\243\276\337l\023>\007b\331\273\013)\007\277\000\256$>\247v\006=N\234\314\27677&>\2648\243=\224\207%\277T\214\023>j\024\022=\020\222\245\276\353;\237=\250\034\223\275\005\243\002\277\306Q\271\275`\257\260:\335\322\252\276\371\017\t>3\214\233=\213\340\017\277\256\236\023>\373;\333<\206 g\276\203L2=[\323\\>\244\252\311\276\343\374\315\274wJ\037\277\270\344\210\276\217l\256<K\261\203=\335\322\002\277\302\300\363\275\310E5\274\362\322\235\276\226\315\234=\251P]\273\375\237\003\277O;\274\275\237\216G\273p\231\263\276\372\354\000=\032\244\300=1\261!\277E\270\211=:\0028\274\000\251\235\276\300\004\016>a8\327:\013A\006\277\3750\">\235\236\367<\315\351R\276H\300(=2wM>G \376\276T\001\367<\350\0239=`\037\215\276@h\275<>[\007=\212<\001\277D\372\355\275\024u\346\273\326\342\263\276^\200\375=\034\353b\275 $\033\277\375\237\003>\310\231\246\274\261\341\251\276\252\232 =\333RG=\314(\036\2770\275==\335y\342\274\234\247\212\276\301\032\347<8\025\t>w\204\013\277\016\022\242;D\027T=ff\246\276\346\256\345=qU\231=E\201\016\277\215z\010>\002,\222=<\240\234\276\217\030\275<\3125\005=4\205\016\277^\327\357\275\032\336\254\274\330\201\323\276\034\231\'>\306Q\231=Z\273%\277\316\307\025>E\234\016=\224\244\213\276%\006\001=r\207M=8\333\004\2779}\275<gC\376<h?\222\276PR\340<X94>S\005C\276\357\2177\276@\331d\277\362\322\235\276\226\315\234=\251P]\273\375\237\003\277O;\274\275\237\216G\273\352\t\333\276\221F\305=\321\037\232=1\231\022\277\'\024\202\275\342\222\343;\232%\321\276\245\332\'>\021\343\225=\2402&\277\353\342\026>\2301\005=\347o\242\276\t\033\336=\365\234\364=\267\321\010\277\2758\261=\324e\361=\0049\250\276\313\020\007>\310x\224=\273\270\r\277\326\377\371=\313ec=\216;\205\276\264\221\353<\007\266*>k\232\'\2776\037\327\275M\333\377\275\301\255\233\276\017)\206<~t\252=\336T\004\277\352\225\022\276\231\235\305\274-x\241\276?\377\275<\312\213\314</4\017\277/\300\376\275\241\367\006\275g\233\233\276=\3277=\346\005\030=!\223\014\277a\246m=\322\032\003=\357\217\267\276r\334\351=\005l\247\275u\310\035\277\303\323\353=\255\243\252\274\007\360\266\276\017\234\363=\353:\224\275\340\363\033\277i\251\374=\264W\237\274\315;\236\276.\3766=\220\330\256==\362\017\277\371d\305<_@/=J{\243\276\022\211\302=}\"\017>\346\256\025\277\2074\312=\3017\255=hy\256\276\245\024\364=\315\351\362=\036\371\023\277S\313\326=|\231\210=\261\371\250\276\207\302g=\213\252\237=\217\302\025\277\035\037\255<\242_[=sK\253\276\223T\246;\346\314\266=\007\323(\277\017bG\276}\\\033\276\210F\267\276]\304\367=\r\307\223\275\340g\034\277\271S\372=:\004\216\274\307h\215\276/\367\311<s\362b=\242\227\001\2770\236\001\276f\301D<m\250\350\276\002\020w=z\373\363<\024\320\034\277\222<W=\t\025\234<C\004\314\276\372~\352=\332\036\275=#\020\017\277d#P\275DQ <%X\234\276|a\022>\036Qa=\2132\013\277!\002N>\375\210\337<\357U\313\276~W$>YP\230=\230\300%\277O;\034>\026\372\340<\351\324\245\276\247\\\001>k\326\271=s\272\014\277\365\204\345=\357rQ=E\273\212\276\302\211\350<\377\354\007>\347o\n\277\007\225\270;d\004T=a\216\236\2767\027?=O\254\223=\2657\020\277aQ\221<\261lf=\222\226\232\276\n\242\016>-%\313=\006\r\r\277\302\027\006>\332\215\236=R,\227\276A\364\244<\216\351\t>\305  \277\262\271\212=h\350\037\274Xs\320\276h\221->X\216\220=\300\t%\277\321\226\023>\260\004\022=b\333\322\276\033\3650>\026\024\206=\320\355%\277e\374\033>\332\221\352<hy\316\276\346\315a=o\331\241\274A\267\037\277\207\3357=\004\256+\275DQ\200\276\271\247+<\'\275/>\246\270b\277\266\020\344=\361\021\021\276k\202\250\276d#\020>\356^.=\210h\004\277jM\023>\216\312\r=\213\211\215\276N\233\361<K\312]=\257|\006\277\331\354\310<I\363\307<\023\362\241\276q \344=>\315\251=j\274\014\277\013F\345=6\316\246=?W\233\276 *\r<]\371\254=s\242\005\277_F1\2764L\355\274\200H\217\276/MQ=RI\235<\231\273\006\277\336Vz=\002\331k<\020\006\236\276`\037\235=C\254~\273\017(\003\277\367\307\273\275N\321\021\273Nb\200\276\335^R<)\3130>\275\373c\277\376`\340=\345\355\010\276\365J\311\276\026M\347=\223\212\306=\267\356\016\277{\364F\275\030\007\027<?\035\317\276\334\324\240=\037\363\241=0G\017\277\270\345\203\275?\216\346;3m\217\276\022\240\246<\372\n2>\343p\036\277\314\264\035\276)y\025\276RD\246\276F%\365=\335}\016=j\301\003\277\312\340\010>o\rl=5$\236\276\232]7=\307\274\256=\216\222\017\277R\322\303</\2062=\n\334\252\276\371\017\t>\000X]=P\302\014\277\344N\351=<\372\037=\277\267\311\276\370\245\036>\211\010\237=\233Z&\277Z\330\023>\341(\371<\027\361\235\276\005\244\235=\341\323\234\273e\215\002\277\241\363\272\275\330}G:it\267\276\206=\r>\315\314L\275Xs\030\277W`\010>\220g\027\274J\007\233\276\334\325+=I0\025=o\360\r\277\3023a=)\261\353<y\257\252\276\010\310\267=\215ES=\337\025\001\277:\312A\274\225\364\260<Ll\316\276\362\007#>\314\270\251=3\341\'\277[\266\026>\210\331\013=0\236\261\276\351\232\t>\373w\275=\'1\000\277\307e\\;io\360<\377>\303\276\027\232\353=\014;\314=h\320\020\277-\260G\275\355\364\203;\277e\236\276\316\214>=SY\224=\2657\020\277aQ\221<\261lf=\365\020\275\276u\037 >\211%e<)y\035\277\367;4><\276\275<h\320\240\276\247>\020\273\354\367\304=;\374%\277{\367g\276?:\025\276(\362\304\276H\026\360=T\031\306=\352[\016\277\005iF\275\'PD<kH\314\276\311\345\037>\356\230\232=\"\246$\277\273\325\023>tb\017=\237Y\222\276HS==\311<\022>;\031l\277\252\324\014\276\235K\221\276$\013\270\276\317I\357=b\334\215\275\027\016\034\277\217S\364=\330\021\207\2746<\235\276\264\3137=\343R\225=\375M\020\277\013\266\221<\014\262e=3\371\206\276\250n\256<\303\365\210=\306\242\001\277\035\224\360\275\340\275#\274\374o\245\276\357U+>B\355\267<\0265\010\277w\204S>V\323\365<\212\260\261\276\232\262\263=\000\002V=\326V\004\277-`\002\276\263\010\305;U\023\224\276\306R$=\013`\312\273\014\037\t\277\342!\014=\256,Q<\356w\250\276\272\367\020>1\231*=t\322\003\277\007B\022>\244\336\023=\027\237\222\276\203QI=^*\266<%#\007\277\n\240\030=\321A\227\273\211\007\224\276\013\355\\=\300\224\301=\302Q\n\277\200\322\020=*\311z=0d\225\276\337\373[=\274\005\022>C\255I\277\321\"\333\275A\274N\276L\375\234\276\323\206\303<jh\003=~:\016\277\006d\357\2750L\246\274\027\237\242\276|\200n<\206X\275=\317\275\007\277\2338\031\276Y\243\036\275\315\257\206\276\027J\246<\330\237\204=Qk\002\277\003&\360\275a\373I\2744\242\244\276,+\315<G8\355=0*!\277\367s\212=\006d/\274J\007\233\276\201\317\017>p\356o=\231\201\n\277\244\210L>\246+\330<\035 \310\276\234m\016>\315\221\225\274\351C\037\2771\2619>\363Y\036<;\031\274\276\247\263\263=\254\2151\275bJ\014\277\212Z\032\2754\331\277\274`v\217\276y\006M=\373\352\252<\315#\007\277\306Nx=\002\331k<:@\240\276\267%2=\034]\245<\351\016\022\277\346\350q=\024\005\372<j\207\177\276s\0235=\275\214b>\237v\270\276\275\340S\275\230nz\277\010\311\242\276Yl\023<\251\205\262=\"l\010\277\221\325\r\276m\342$\275\232\224\202\276\357\346)<\275\343\024> $\023\277\n\364I\276\362\265\'\276\342\257\311\276\250\3400=\252I\220=H\376 \277\262cc=\277\265\223<\277e\236\276\262I>=y\222\224=\235c\020\277\334\362\221<(\362d=\203\372\306\276\302i!>8M\237=\356=$\277\321\226\023>\240\250\354<[\231\300\276\307/<=^\235\343=T\000$\277\235.+\276\257\224E\276\275\214\242\276|\'\346=zU\247=\252H\r\277\346?\344=\0365\246=#\241\235\276\326X\002=9~\250;\301\034\005\277Bx\364\275\311r\222\274\'1\230\276\327\206\n>\362\014\332=\333\026\r\277-\317\003>\rm\240=\353\220\233\276kG1=G\312\026=a\032\016\277\374\344h=\177m\375<\276\274\320\276rm(>\363\222\177=j\023\'\277\027\361\035>Y\337\300<\357\254\235\276\360\337\234=\230\336~\273\370S\003\277\016\277\273\275\017{\241\272u\253\247\276\276\243F<\\\343\263=:\006\014\277\255i\036\276\334\233_\275U\366\235\276\251\370?=\321\222G<F\316\n\277n\336x=\252)I<~\251\237\2764.\034>qVD=\277\016\014\277\302/U>(\321\222<\326\342\263\276^\200\375=\034\353b\275 $\033\277\375\237\003>\310\231\246\274\211\007\224\276\013\355\\=\300\224\301=\326\220\010\277G\377\013=r\211\203=\245\203\225\276$\227\377<\262\270\277=>\\\n\277\343\030\311;.\032r=\314]\233\276\n\200q<\265O\307=j\301\023\277\264\223!\276\355\014\223\275\303\273\254\276Z\022\000>\004\345\266=I\327\024\277\3436\332=\325^D=\310\357\215\276\354\277\316<@KW=\345~\007\277gb\272<B\322\247<\304\261\276\276\361d7=\235\332\271=\213l\037\277.\214t=\366\357z;\227\312\233\276I\205\021>\207\333a=[_\014\277\373:P>Z,\305<!\352\216\276\r\376\376<\370U9=\310^\007\277\351\266\304<\2717\277<nn\234\276\030\3551=\232\3179=\027\267\021\277\016\332k=\036T\342<\273~\241\276N\264\253\274}u\025=\3711\016\277\305\217\361\275\214\274\254\274nn\254\276i\344\363;\341\266\266=@\331\034\277\350\0239\276\255\243\352\275\364O\240\276\332<N=\333\212\035>\321\313(\277`\315\001\276E*\314\276\030}\265\276\231\236\360=\025\305\213\275\362^\035\277\225\267\003>\303\234\240\274\033*\246\276\027\202\334=\375g\r\275\342\006\014\277:\\+\275\276Nj\274\314(\206\276OX\"=/\206\362=\242\234 \2778\025\t\276\311q\'\276YL\274\276U\023D=(I\327;R\270\036\277\250TI=\222A\356\274\313\326\252\276\225\361\017>z\035q=k\237\016\277\"\216\025>\376a\313<\353\305\320\276\254t\227=\275o\234=I\364\022\277b\276\234\275dsU; )\222\276aO;=>\\\022>\346\221W\277\nh\002\276!\345g\276\261\026\277\276\211A >^\326\304;\3058\037\277\201x=>\315\224V<\255\027\223\276hZ\"=\001\025\216\272\013\230\010\277]2\016=\2763Z<:z\214\276\251j\002=G\220J=\010\254\004\277Z\275\303<\361E\373<\020u\237\276\242\232\022;\013\226\252=77\036\277\366\227]\276\236\357\347\275~\030\301\276\2554)>\244\2148;\237\223\036\277\214\2046>NF\225<zp\327\276]\213V=\315\253z=\366]!\277\227\034w=\257\007\223;s.\225\276\353\341\013=\334\235\365=\220\332\014\277\232\351\336<\325w~=!\345\327\276>\351D=\352\227\010=g\233#\277\241G\214=\240\374]\274\260\346\220\276\022\027@=\\w\023>O;<\277;S\350\275I\021\031\276Ll\316\276\362\007#>\314\270\251=3\341\'\277[\266\026>\210\331\013=\266\326\207\276\341A\263<\322\305\206={N\002\277\232\353\364\275\017(\033\2742 \233\276*p2=\230\340\024=\304B\r\277vpp=\034C\000=\365\020\275\276u\037 >\211%e<)y\035\277\367;4><\276\275<\226\347\201\276{\207[<\026\030\022>4\272\013\277%#\'\276\r\033\245\275 \014\234\276\225`\021>\264>e=\213\032\014\277p\353N>!\351\323<\360\247\226\276\257_\360=I-\224=+0\364\276W@a\275p\352\203\274\330\201\323\276\034\231\'>\306Q\231=Z\273%\277\316\307\025>E\234\016=\233r\305\276\360\212 >\346\260\233=&\344#\277:\314\027>3\334\000=9\264\250\2769\264\010>H1\240=\001\244\016\277\246\325\020>\225E\341<]P\237\276\3377>=*\342\364<\244\252\021\277\374\310m=\246b\343<\264\253\320\276K\224==\237\315j=\223R \277\0161^=rpi<\306\242\231\276L\211\344=\027\272\222=J{\363\276\330\272T\275\272\023l\274\234\334\237\276\334~9=m\342\244=\204\201\017\277\231.\304<\013\013.=$\013\270\276\317I\357=b\334\215\275\027\016\034\277\217S\364=\330\021\207\274\021\215\276\276KY&>\265l-<6\260\035\277\305=6>Y\340\253<\347R\274\276r\212N=\263\225\027\273>\256\035\277\206U<=\361b\341\274aTR\276=+)=\343\374M>_\322\370\276,g\357<t%B=\237\253\215\276\326X\002=\222>m=\266\020\004\277\255\336\341<v\213\000=\244\307\257\276A~6=4/\247=\304\231\017\277\321?\301<F|\'=\220\275~\276czB<Gw0>5)e\277%#\347=\311<\022\276\017\321\230\276\267\234\013>\271\245\325=H\304\014\277\037h\005>\003\010\237=\274?\256\276F\323\031=?r+=\222\313\037\277\260\035L=\215\'\002\275\211\265\250\276\264\314\202=@\373\321=TW6\277\261\026\337\275_\014\005\276)\256\232\276\004!Y=:\036\263<;\302\t\277/Q}=\276\024\236<\303\273\254\276Z\022\000>\004\345\266=I\327\024\277\3436\332=\325^D=d\006\212\276\372\232\345<\340\020\n>g\270\t\277a\252\031<\266HZ=s\205\267\276j\2409=6\217\243=uv\022\277\330\267\223<\033J-=\273~\321\276\362$)>\231\274\241=\014\007*\277sc\032>k,\341<\363Y\256\276\366]\021>&\341B=:X\007\277\260 \r>\365\021\370<\373W\226\276\317\021\371<\204H\006=\306\304\016\277\1770\360\275\033\330\252\274`\002\267\2767O\365=\366\010\225\275\354\022\035\277 \014\374=\343\245\233\274#-\265\276W\262\343=\324\273\230\2756\345\032\277~t\352=+\371X\274\340\241\230\276\200\202\013>5A\324=\373\350\014\277\363\345\005>\256\330\237=>\350\251\276\006\365\355=\335\t\226=\336\216\020\277\201\004\005>\316n\215=\034\266\215\276;\377\366<\005\333H=\027e\006\277G!\311<\002\235\311<\301V\311\276_\177R=z\342\231=\'N\036\277.\214t=C\346\312;g\233\233\276=\3277=\346\005\030=!\223\014\277a\246m=\322\032\003=\t\026\267\276\312\211\366=\351|\230\275\375\207\034\277\221~\373=&\376\250\274\031\377\316\276\035w*>_D\233=\013\265&\277\204\330\031>\244m\374<_A\312\276F|\347=\025<\305=\250\214\017\277\325<G\275\'\025\r<r\341\240\276M2r=-\\\226=F_\001\277l\355\375\274m\033\306<>\350\251\276\262\235\357=\335\t\226=\203i\020\277Y\300\004>MK\214=F\323\251\276\024y\022>\375\367 =\001\301\004\277\266\370\024>\252,\n=\205%\236\276a\213\235=\3066\251\273!<\002\277\034\\\272\275\275:\3079\2304\306\276\371\024 >\372(\243=g\362%\277\264Y\025>\352\\\321<1\353\305\276\303\323\353=t~\312=\354\027\014\277\217qE\275!\313\202<\032Q\232\276*\035\014>\'j\311=|,\r\277H\212\010>\330\236\231=\377>\303\276\027\232\353=\014;\314=h\320\020\277-\260G\275\355\364\203;\036\334\315\276\0216\234=<\336\244=E\r\016\277\377>\203\275\026\210\036<!v\326\276\037J\264=\245\371\243=\257w\017\277\272\204\203\275\363rX<\237<\334\276\2613e>xB\257=\276\274 \277\260\217N>\362y\205=\013)\237\276\266,\237=PS\313\273\341\177\003\277\256-\274\275\320DX\273\274\263\306\2760\r#>J\226\223=U\023$\277b\020\030>\032O\004=>?\314\276=D#>\2512\254=\252C&\277\352\004\024>j\024\022=.\034\250\276H\337d=\264Z\240=\\U\026\277\252F\257<4\277Z=m\347\233\27677\346=\325\225\217=\313\020\367\276\202\003Z\275\357\252\207\274\337\375\241\276\3271\256:\317\021\271=DL9\277\247\350h\276\262\272U\276$E\244\276\220kC=\013\265\006>.\034\370\276z\302\322\275\352\262x\276\273a\313\276\203\212*=\002\021b=M\276!\277\013`\212=\332\2519\274\232\224\202\276\357\346)<\275\343\024> $\023\277\n\364I\276\362\265\'\276\271\031\256\276k\267\335=T\251\031>V\232\024\277\235\273\275=\343\212\313=\254\034\272\2768\020\022=)\005\335=\304w\"\277\206\346z=A\272X;M\020\245\276\253\t\002>k\326\271=\325\317\013\277\215\356\340=q\343V=@\331\224\276\371M!=\323\206C\274\001\207\010\277\205\261\005=\306Oc<\203Q\231\276\344f\370=y\220\036=\330\323\006\277\220\024\021>Z\241H=\031\377\316\276\035w*>_D\233=.9&\277\204\330\031>\244m\374<\226\347\201\276{\207[<\026\030\022>4\272\013\277%#\'\276\r\033\245\275\312\246\234\276\t\337\233=r3\\\272Z\360\002\277\201\227\271\275\336\036\204\271\214g\220\276\316\212\250<\357\3412>\235\200&\277)\\/\276\246\nF\276\202\347~\27677&<\272\3670>H3f\2779b\355=&\031\031\276\371\367\271\276\030`\037>#.\200<\240T\033\277\332r.>/\207\335<\363\223\252\276)\320\007>r\247t=\214\020\016\277\213\375\005>\357\342==\2446\241\276\014@#;<\333\303=6\315\033\277\215\321Z\2766\352\341\275\343\307x\276\021\3404=\030\354f>\200\324\326\276\332\345\333\274M\276\021\277\271\215\306\276+\244\034>\316\214\236=~\343#\277\2132\033><M\346<\265\303\317\276\027\237\">\226\315\234=M2*\277\014Y\035>a\303\323<\313\326z\276\014\352\033=h\256\023>\3706\375\276\274\226\320\275\013\263\320<N\234\314\27677&>\2648\243=\224\207%\277T\214\023>j\024\022=\331=\211\276H\212\310\273\261\301\302\274\265\246\001\277\206\254\356\275\300\347\007\274\233Z\306\276!\352\036>\"\376\241=\235\021%\277\2716\024>$a\337<*\251\243\276\220\367\352=J\353\357<\363\037\n\277\316\245\030>\317\364\022=\225e\250\276`\352g<\024#\253=\177\331\005\277\351C\027\276nL\017\275`\315\241\276\322\251\253\274\207\334\014=\3711\016\277\305\217\361\275\232\007\260\274 \014\234\276f\202a<\367\312\274=N(\034\277\366\177.\276\000:\314\275 A\221\276x\324\030=\020\347!=\350\336\013\277{\333L=G\222\240<1\353\305\276\303\323\353=t~\312=\354\027\014\277\217qE\275!\313\202<\313\326\252\276\204\r\017>\033\017v=k\237\016\277\202\213\025>\352\347\315<\004\034\322\276e\245)>\216\347\223=P\215\'\277\246\320\031>\003&\360<\377\262\233\276\217\252\346=!\005\217=\344N\371\2760\271Q\275/M\221\274\'1\250\276\325z?=1\264\232=!v\016\277\222tM<\351\016\202=\021\252\244\276\017E\001>\346\350\221=.V\014\277\210h\364=d\353Y=\210F\267\276\221\320\026=Z\240\275=\234\334\'\277\026O}=C\034k<\245f\317\276&\344#>\372\320\245=c\264&\277\357 \026>-\006\017=u<\306\276{k >\241,\234=\016\204$\277\365\333\027>dt\000=K\352\204\276\016\203\371<\037\205+>\333P!\277\336<\325\275`\037\335\275\004\347\334\276\370\306\220=\005\370n\275\277e\036\277\313\326:=\023\014\'\275w\333\225\276 \354T=?;`<E/\013\277s\276\030=Wx\027\274\334\235\245\276\303\266\005>\376\236\270=w\020\013\277\331%\n>\304\353\232=YL\214\276\254R\372<\201?<=,+\005\277/\300\276<\2029\372<\003}\202\276\032\2770=\322:*>=\270\373\276\231H\351<?S/=\031\377\316\276\035w*>_D\233=\013\265&\277\204\330\031>\244m\374<\007\353\237\276$\271\374=5bf=\000t\010\277\030\225\324=\356\004;=2Z\267\276\303\236\366=.7\230\275\240O\034\277\r\032\372=,(\214\274/4\227\276\263\264\023=0L\346=\002\324\014\277\277d\343<\2657x=-C\314\276\371\017\351=\024w\274=\335\230\016\2771\227T\275 &a<\251\207\250\276G\257\206<\222yD>}y\301\276l\354R\276\371\0179\277\366b\230\276tA\375=\361\2033=:\314\007\277\n\277\324=\230\303.=\301n\270\276\035\311\005>PR\200\2750\365\033\277\254\305\007>-\262\235\274x\271\310\276i\345\036=jPt=[|\"\277\354\302\217=}\3203\274\241\241\237\2764g\235=F\010\217\2730\022\002\277\343\307\270\275\241\367F;\321?\241\276\211\tj=5z\225=8-\000\277\250\035\376\274\003z\341<\013\265\246\276\346W\363=\241\017\026=z\252\003\277\220\210\t>\352\314}=\212\310\320\276\316\337$>\344\024\235=-x)\277\202\312\030>\212;\336<]\341\215\276->\005>\032\373\222<s\242\005\277\236\230\025>\205>\030=k\267}\276!\261\035=\026\030\022>1\010\374\276\347:\315\275\024Y\353<\006L\240\276\210\363p=Jz\230=0G\377\276zU\347\274A\361\343<R\270\236\276v\210\237=\025U\277\273\036\212\002\277U\025\272\275\332\003-\271\263\352\243\276\200\2340=\376H\321=\350\331\024\277h\004\233<\333mW=\005Q\227\276OXb=\276\365\301=\326\377\t\277!@\006=O\353v=\266\276\310\276\321\\\347=\221\356\307=]\334\016\277E\332F\275qW/<E*\314\276-^,=\377\353\\=\257\316!\277\345b\214=\332\2519\274`\315\241\276\013\231\253\274,\274\013=\331_\016\277\035\003\362\275\006\275\267\274\211\357\224\276\255nu=\327\243\020>a\032&\277\317j\301\275G\346\321\275U\207\234\276\221\265F=\351\017M<\312\032\r\2770L&=\013\263\320;\\\003\213\276F_\001=w\333\005>z\252\013\277\364\375T<\333mW=t\230\237\276L\375\234=\265\376\026\273\214\276\002\277\356_\271\275\307b\033;\027e\306\276\371\024 >\304>\241=\255\206$\277\035r\023>}\226\347<Gr\211\276$\3561<\251\331#>\262\2357\277\347\306T\276\346\221_\276\334c\231\276\333mW=fL\301<\004\377\013\277\001\333\201=~W\204<aTR\276=+)=\343\374M>_\322\370\276,g\357<t%B=\200`\236\276\301\037\236=\372\324\261\273-[\003\277.\342\273\275w\021&\273g\362\215\276\027\362\010=\207\341c=\274\\\004\277m\376\337<\232\322\372<\242z\273\276/\210\210=b\201\217=K\253\t\277Rc\302\275\276\240\005\273\366b\230\276\312O\352=Q\240\217=\022\203\010\277WC\002>\014\223i=\257Z\251\276a\032\006>\254\346y=\000\251\r\2776\223\017>\201\353\n=\321?\301\276\376}&>\352\"\005<\255\372\034\277S\3136>\245\207\241<1\261\211\276\326XB<\3441#>s\2356\277\260\311Z\276\255\335v\276T\343\345\276\321\005U>.\346\247=Y\372(\277\347\030p>\214\2432=\317\203{\276.\034\010= \322\017>\250\214\377\276\256\r\325\275\351G\303<)\005\315\276\355\362-=a\247X=\367X\"\277\312R\213=\265\304J\274\273\270\235\276\260q\235=\311th\2737l\003\277\014\256\271\275\377\221\351\272\337\032\230\276)=S=\004\310\320<\004\377\013\277\001\333\201=\235\ry<\210.\250\276\355\231e=\317\277\235=\204\r\027\277P\337\262<\312SV=_\007\236\276\321t6=Y0\261=\332U\020\277v\026\275<\214\2401=\377\004\267\276\245\203\365=\366]\221\275!\007\035\277\030\262\372=\002\273\232\274\240\032\237\276\025o\004>\220\2774=\261\277\004\277\'\332\325=\031\000*=\3171\240\276\343\213\366\272\273\270\315=\"\303:\277\270@\202\276\334h`\276e\302\217\276\324\323G=\265\305\265<.\034\010\277\336ru=n5k<}y\321\276\247\350(>pA\226=\211\322&\277\2657\030>\003&\360<\037.\251\276\221a\325=I.\037>C\004\024\277\354\026\301=yu\316=\023I\244\276|\200n<\255\276\272=o\323\007\277Gr\031\276\351\357%\275\367\036\236\276\355\236<=\274\255\224=\335\357\020\277\233\036\224<D\334\\=G\346\241\276\361e\"\273\2444\273=\213TX\277\024\350\203\276\037\235\232\276\237v\310\276\323\336 >nP\233=\313\241%\277w\363\024>N\270\327<\255n\225\276\003[e=\275\306\016>\235.;\277Q\245\346\275w\204\023\276f\210\243\276\245\240\333=F&\340\274M-\013\277h\037+\275\355\r>\274\336v\301\276F\264\275=\344\021\\\275,\016\017\277\244\375\017\275\364\244\014\275\237Y\222\276HS==\311<\022>;\031l\277\252\324\014\276\235K\221\276;\001\215\276@\374\374<~\252J=>\256\005\277O\311\271<\211~\355<\027H\320\276\177\023*>(\202\230=\317\275\'\277V\267\032>\023\235\345<h?\222\276PR\340<X94>S\005C\276\357\2177\276@\331d\277\211)\241\276*\346\240=<0\000\274c\013\001\277u\223\270\275\364j\200;\227\250\336\276I\201\205=\3272\031=\330\273\037\277\2033x=2\036\245;b\333\322\276\033\3650>\026\024\206=\320\355%\277e\374\033>\332\221\352<\377!\255\276|\325\n>\216\350^=\025t\013\277\266\271\021>\016\025\343<c\321\244\276\214-$>X\306F=\322o\017\277\357\217W>\241\241\377<\206\033\240\276L\375\234=\265\376\026\273\3333\003\277\367\"\272\275\235\331.:\273~\301\276\203\300*>\031\035\020;\347\035\037\277\022\2107>\312\375\216<a\216\236\2767\027?=O\254\223=\2657\020\277aQ\221<\261lf=\353\220\233\276kG1=G\312\026=a\032\016\277\374\344h=\177m\375<\246\362\306\276\340\241\350=\264U\311=\354\027\014\277\217qE\275!\313\202<j\301\233\276q\033M=R,\267<\273a\013\277\372\357\201=\266-J<\213\340\277\276\036\371\203=\355\272w=\300\t\r\277\251\027|\275\231.\304<\370\245\236\276\245\331\234=\017\233H\273c\013\001\277u\223\270\275\364j\200;\034\353\302\276\343\252\362=N\235\307=j\274\014\277\245\236E\275_\262q<\306\371\313\276\371\017\351=\321\315\276=\315#\017\277\266\203Q\275DQ <\345\233\235\276D\213\014>s\235\306<n\206\013\2779\271\037>\2173\r==\325\221\276e\307\006=\330\201\363=\314\356\t\277nO\020<\n\364I=\t\247\305\276{k >\2763\232=\007%$\277\357\217\027>\375\301\000=\354\022\265\276U\204\033<0\332c\274\372D\026\277\'\210\372\275\263{r\275\274y\272\276\032n >\306\304f<?\343\032\277}\263->\'\365\345</\213\271\276Nz\037>,\r|<f\024\033\277\351H.>\247A\321<\2613\325\276\331_V>\300\006\304=~\214!\277\357\003P>\341b\205=eS\236\276\354K6=\255\212\260=\006L\020\277\317K\305<o\r,=\325\262\265\276\032i\351=\262e\231\275\312\246\034\277f1\361=\347\215\223\274\376\324\270\276V\202E=:\314\027<\200\324\036\277A\016J=\322\307\374\274\036P\246\276\201\263\024=\271nJ=<\367\036\277\354\336J=\321#\006\275\207\304\275\276\021S\">oc3<\324\267\034\277\276\0233>$\t\302<\277\267\311\276\370\245\036>\211\010\237=\233Z&\277Z\330\023>\341(\371<\374\000\244\276[?==\205\352f\274\312\032\r\277L\2475=\334\202\245<K\345\235\276\363\310\037>\2756\273=5\014\027\277\340\276N>?\377}=\022\210\247\276\201\317\017>\335\266/=t\322\003\277\007B\022>\244\336\023=J\007\233\276\334\325+=I0\025=o\360\r\277\3023a=)\261\353<c\234\217\276u!V=\215\230Y<\302\022\007\277\207\304}=\243\313\033<,\232\276\276pB!>\033\022w<\313\234\036\277n\2132>\274 \242<\353s\245\276\373@\362<\347\306\364=\215z\030\277\226\222e=\302K\360<\377\004\267\276\356B\363=\013\357\222\275\253\354\033\277a\340\371=\247\006\232\274\021\215\316\276\370S#>\314\270\251=3\341\'\277[\266\026>\210\331\013=\235h\267\276\327i\004>\204G[\275@\336\033\277\256\365\005>\2076\200\274x\271\310\276i\345\036=jPt=[|\"\277\354\302\217=}\3203\274\200+\271\276\272\367\360=\332\221\212\275H\304\034\277\365g\377=B\t\263\274s\205\267\276j\2409=f\210\243=,\267\024\277\330\267\223<R\' =\223W\267\276\\X7= \265I=\317\332\035\277@\211\317<\277,-=U\023\224\276\255l\037=\013`\312\273\0054\t\277K\254\014=\t\306A<\231\022\271\276~\214\371=\2506\230\275\217\337\033\277\212\037\003>\263\265\276\274\016\363\265\276\363\223\352=~\214\231\275\355\236\034\277\244\245\362=\304_\223\274\003\225\241\276\212\216\344=\274\257\252=\373\\\r\277u<\346=,\234\244=\233\376\314\276\210.H>\013{\332=e\245!\277b\204P>\322\211\204=\212Y\257\276\333\247\343=+\366\027>+0\024\277\\Z\315=\361-\314=\273a\253\276\360\026\010>/\245n=1\316\017\277\006/\372=`\001L=\356\010\227\276\r7 =p[\033=\304Z\014\277\314\317M=\242F\241< \014\234\276f\202a<\367\312\274=N(\034\277\366\177.\276\000:\314\275\205\224\237\276\005\300\370=XXp=^\327\007\277\257\353\327=\257\351A=\002\232\270\276:\036\363=\252\356\221\275\250\306\033\277\231\330\374=\235\276\236\274\216\257\215\276\231\323\345<\016\300F=xb\006\277g\'\003=\315\217\277<\316S\235\276\311\222\271<c\200\004=Z\273\r\277p\353\356\275Q\242\245\274\2343\302\276e73=\356\230\272=\235c \277\242&z=\260\251s;\241\363\252\276\036\247\010>\247\003Y=\226\262\014\277~\343\353=\366~#=\231\360\253\276\036m\334=\232w\034>(\017\023\277\324\362\303=5c\321=c\177\231\276Z\330\023>_\355h=\263\230\010\277\211{L>=\327\367<\264v\233\276)\257\025;Di\257=Dn.\277\360\205i\276\r7 \276\233\033\303\276\001\301\034>\333\374\237=2U \277\211\265\030>Z\r\t=\003}\202\276\032\2770=\322:*>=\270\373\276\231H\351<?S/=\374\373\274\276\256\266\002>\263\230\330=X\220\016\2779EG\275\331B\020<0\330\215\276o\325\365<\361\330O=\036\304\006\277{\202\304<\205\320\301<\223\343\236\276u\260\236=\372\324\261\273\341\177\003\277\256-\274\275\320DX\273\224\244\213\276%\006\001=r\207M=8\333\004\2779}\275<gC\376<\365\020\275\276n4 >\211%e<\014Y\035\277\352\0044>\342\347\277<zS\241\276k\272\036;4\363\244=\001\207 \277\313\363`\276\000\306\363\275N\234\274\276+\301\">\324\322\\<\025W\035\277\271\2455>v\337\261<\225e\250\276`\352g<\024#\253=\177\331\005\277\351C\027\276nL\017\275\t\247\245\276<J%=E\022\275=\217S\024\277D\211\226<*\213\202=\243@\237\276 \267\237=\027\364\336\273\2343\002\277i\376\270\275\362\264\374:\257Zy\276\223o6<d\2221>\024\350c\277\361\327\344=\\\311\016\2766\223\237\2767l\033>,GH=\0358\017\277\344fX>!\314\355<I\200\272\276Q\210 >GY?<\267\264\032\277{\024.>?\342\327<\373y\223\276\t\304\353=+h\232=\336\253\366\276\306k^\275\264\003\256\274U\366\235\276\033\330\352=gG\212=u\223\370\2764fR\275\361I\247\274\356\010\227\276\r7 =p[\033=\304Z\014\277\314\317M=\242F\241<\303\365\270\276ff\006>S#t\275\006\236\033\277\230\243\007>\234\305\213\274Z/\246\276\357\346\351=\246\230\203\272Di\027\277I\272\006>tF\224\273\031\377\316\276\035w*>_D\233=.9&\277\204\330\031>\244m\374<\342\314\317\276\261P+>/\243\230=\361.\'\277\315\006\031>&\034\372<\245\240\213\2763p\000=\207\244V=8\333\004\277\3229\277<F\t\372<\227\342\232\276N\177v<4\241\311=\364O\030\277dX%\276\000:\254\275\327L\276\276\367\001(>\013\263\320;F\261\034\277\267(3>f\205\242<\337O\275\276\223\251\">\340\200\026<\3333\033\277\245\367->ly\345<fk\315\276*\343\237=Z/\246=\204*\r\277YN\202\275\333\207<<3\371\266\276`\223\365=\247\224\227\275\354\022\035\277 \014\374=\343\245\233\274\307\200\274\276E/#>\342\002P<\216;\035\277Lq5>\372\360\254<I\272\246\276y\351\346=\323\336\000>\026\301\037\277\341\177\353=G\347<=?W\233\276 *\r<]\371\254=s\242\005\277_F1\2764L\355\274\301\255\313\276\255\372\334<#\025\006>\360\205\211\275\314\264]>\017\234\313\277\242z\273\276/\210\210=b\201\217=L\303\010\277\233\256\307\275q\347B\273\250\251\225\276\022\332\022>\230\025\n\274\002\331\003\277\022\210\027>r3\034=\376H\301\276\020\350L=\353\033\030<:\314\037\277\255\204.=\237\002 \275k\202\230\276\311\346*=\2551\310=F\224\016\277\245\330Q<\010wg=\314(\206\276OX\"=/\206\362=\242\234 \2778\025\t\276\311q\'\276\260r\230\276`\000\341</\300>>\237<\014\276\222\313?\276aT\202\277\266\276\310\276(a\346=\221\356\307=\327\300\016\277?\304F\275\"\0343<7\246\207\276B\320\321<a\246\r>0\236\t\277\315\311\013<\201\317O=\311q\267\276\331_\366=\265\302\224\275a7\034\277a\340\371=\264X\212\274^K\250\276\r\340\355=_\014\005>\214\333\020\277\231\014\307=\026h\227=G\346\241\276\362\353\007\273\2444\273=\3603V\277#\276\203\276Ou\230\276_\007\236\276\321t6=Y0\261=\332U\020\277v\026\275<\214\2401=\336T\224\276\247\352^=\271\307\022>\n.&\277\362#\276\275\251\022\305\275\024\256\267\276\016\276\360=\021Q\214\275\272\332\032\277lx\372=\236\006\214\274\233r\305\276\360\212 >\346\260\233=&\344#\277:\314\027>3\334\000=\211\265\250\276\205\353\221=82\317=\306\334-\277i\214\326\275\357\254\335\275\235\021\245\276\267Am<s\204\014=qZ\010\277\2034\343\275\005\214\256\274\276\207\233\276\245\2370=\325$8=L7\021\277\240\245k=\260\347\353<;\252\232\276/\335\004>!\225\302=Lq\r\277L7\t>\262\275\226=\356%\275\276\333\247#>\231\201J<\025W\035\277\271\2455>v\337\261<\003}\202\276\032\2770=\322:*>=\270\373\276\231H\351<?S/=2 \233\276\321\2201=,\363\026=\037h\r\277.\253p=\014\007\002=\000\214\267\276-&\366=\201A\222\275\257\231\034\277\034\360\371=Y\375\221\274\271S\312\276\344\203\036>\242\321\235=\013)\'\277n\372\023>\034\352\367</Q\315\276\020\222%>\300\354\236=*:*\277\224\274\032>\tP\323<\273\233\247\276\231\325;=\352\354\304=\267\177\025\277h\004\233<\333mW=pw\226\276f0\006=t\263\277=\323M\n\277p\013\026<\226Au=7\303\235\276\317\327\254<\346\3501>\352>\240\276\246\nF\276\017\326/\277`\352\247\276p_\007>)\257\225=\006\365\r\277\372\'\370=\027Jf=_A\312\276F|\347=\025<\305=\250\214\017\277\325<G\275\'\025\r<\237\037\246\276\021\374\357=\003`\374=\233=\020\2771\231\312=\255\332\225=\377\312\232\276\246\272\000=?\035\317=\225\324\t\277\232\224\002=Eh\204=C9\301\276\376}&>\353\000\010<\3475\036\277Z\3659>\037\273\213<W\317\211\276\334\360\273</Q}=\033\330\002\277\321\005\365\275\370\3405\274|\355\251\276\037\274v=\3329M\275\247\\\t\277\253^>=\'\240\t\274\315\001\302\2769\234\031>&Q\257=9\356$\277\316\307\025>\252C\356<\242(\220\276\325w>=&\375\275;\326\342\003\277\221+u=\264!\177<\351+\250\276G\217\337<\274t\323=\220\332\364\276\200+\331\275\303\266E\276\3745\311\276\221`*=V\365\222=\234\334\037\277\300z\\=XW\205<\032\243\265\276\032i\351=\361~\234\275\243u\034\277\203\335\360=V\266\217\274\377\004\267\276\017\234\363=\006\331\222\275k\324\033\277\211$\372=\247\006\232\274hy\316\276\346\315a=o\331\241\274A\267\037\277\207\3357=\004\256+\275!\260\302\276O;\034>\333\374\237=\214g \277\343\307\030>\'\277\005=JF\276\276\305U%>\034\265B<\224\207\035\277\375\3665>/\245\256<&\215\261\276FC\006=\363<\030>`v\027\277\033L#\276\376C\032\276-`\242\2763\247\013>\343\340\322<\273\n\t\277\340J\026>\322n4=\211\007\244\276\240\371\034<\247\010\260= \357\005\277sK\013\276\3125\005\275\r\211\253\276\227s\t>\333\243w=\343\337\017\277K\260\370=&\341B=h\\\250\276J\264d<z\031E>\n\327\003\276\316\337d\276Y\027\207\277\252\324\234\276T5!>}Z\305=\r\303\017\277\364\370=>\321tv=\232w\314\276!v&>\023\200\237=\311\345\'\277\2132\033>c%\346<\260r\230\276`\000\341</\300>>\237<\014\276\222\313?\276aT\202\277\377>\303\276\027\232\353=\014;\314=h\320\020\277-\260G\275\355\364\203;\357r\241\276\006\200\252\274w\274\t=\214\204\016\277\222\"\362\275\212t\277\274\235h\267\276(\362\004>\233t[\275\037\205\033\277\220I\006>bLz\274\251\274\235\276\021\036\355=\256\235\210=\336<\365\2764\367P\275\212;^\274?\000\251\276\037J4;\304Z\274=\250\251M\277\332\003m\276\356\010\207\276\341@\270\276vO\036=<\026\273=\2201\'\277\0219}=\235*_<\022\240\246\276\364\340\356=e\247\237=\277C\021\277\336\223\007>\231\236\220=\212\260\261\276\360\024\262=\000\002V=\326V\004\277-`\002\276\263\010\305;\252\267\266\276>\313\363=\361\274\224\275\253\354\033\277a\340\371=\372`\231\274m\255\277\276nQ&>s\203!<\216\257\035\2778\0202>\3022\266<\210\200\263\276\023\270\025>t}\237<\327Q\r\277-[\353=\016\366&=RD\266\276\340\333\364=\361\274\224\275D\027\034\2771\261\371=\031\256\216\274\214g\220\276\316\212\250<\357\3412>\235\200&\277)\\/\276\246\nF\276\247\\\301\276\274\346\025=\3267\220=\023~!\277\233\217\213=\344h\016\274\2176\316\276\313-->\034\014u=\270;#\277\035\217\031>o\235\377<e\001\223\276\357WA=\207\212\021>\013$X\277 )\002\2768\025i\276\345~\267\276cD\"= \014\374=\376` \277\033L#\276\376C\032\276\327\335\234\276\217\030\275<;\211\010=\243X\016\277^\327\357\275\335\227\263\274\030}\265\276\n\021\360=F\n\205\275\022\275\034\277\210\200\003>\205]\224\274\265\303\317\276\027\237\">\226\315\234=M2*\277\014Y\035>a\303\323<\204d\241\276\343\245\233\274}\257!=\024?\016\277\030\t\355\275\336\221\261\274h?\222\276PR\340<X94>S\005C\276\357\2177\276@\331d\277\031\377\316\276\035w*>_D\233=\013\265&\277\204\330\031>\244m\374<[\266\266\276F\224\366=\357r\221\275f\210\033\277\372\'\370=\262\270\177\274m\347\233\276\226\225\346=\300v\220=>\263\364\276\202\000Y\275\223RP\274\275\035\241\276\342\004\246\274){\013=\227\034\017\277B\t\363\275\207\303\322\274v\032\231\276\246\'\014>\216\223\202=\376\324\010\277,\274K>\n\277\324<\357\033\257\276\233Z\366=\266\333\356=3\212\r\277d\220\273=]P\337=|\270\204\2764\275\004=\335\322*>8\020\n\277\372*\271\275\357\000\017\275\360\334\213\276@i\250<\371Ma=\030`\007\277\016N\304<(\324\323<\032Q\232\276\256\022\014>\'j\311=\362^\r\277\034\010\t>CV\227=\357r\241\276\276\274 >\313\203\264=\365\276\021\277c\234?>x\226`=m\377\312\276\230Q\354=\373\255\275=\006\201\r\277m\033F\275\266\205g<K\037\232\276\215E\023>\203l\031=\023I\004\277C\034K>\003\266\203<W\317\211\276|E\267</Q}=\301\305\002\277\\\346\364\2759F2\274\273\'\237\276\314_\241=|H\370\273f\240\002\277\243#\271\275\211\014+;\354i\227\276\255nu=\352x\014>\263\014!\277I\206\274\275\376\272\263\275\270@\242\276uX\341;X7\276==D;\277\320\320_\276]P_\276\265\303\317\276\320\017#>>>\241=K\253)\277\214\241\034>\366(\334<\304%\327\276\310\007]>\202\035\277=\307F \277\312\375N>\211\320\210=\\Z\275\276MJ!>UQ<<\252`\034\277|a2>\311\034\313<\271\374\247\276\033\205d=\202\347\236=\204\r\027\277\220J\261< \320Y=\340\020\252\276\177kg=\214\236\233=\r\340\025\277\374S\252<x\321W=)y\325\276\353V/>\267\r\303=\354i\037\277O\257T>zl\213=\274?\236\276\222t\r>a8\327:Ll\006\277\3750\">\006\023\377<\233\376\314\276\210.H>\013{\332=e\245!\277b\204P>\322\211\204=\374\000\244\276[?==\205\352f\274\312\032\r\277L\2475=\334\202\245<LT\277\276\303G$>\002\326*<uY\034\277\34756>%\004\253<\212\310\320\276\316\337$>\344\024\235=-x)\277\202\312\030>\212;\336<\252\267\246\276M\363\016>.\0353=~:\006\277\302\300\023>${\004=\310\007\255\276\037\242\021>\263zG=\214\276\n\277+5\033>~\250\264<.\255\266\276/\027\361=B\224\217\275)\005\035\2778\276\366=\207\244\226\274\356\010\227\276\r7 =p[\033=\304Z\014\277\314\317M=\242F\241<DQ\200\276\271\247+<\'\275/>\246\270b\277\266\020\344=\361\021\021\2765)\265\276\201\"V=\311\377\244=\244pE\277\216u\361\275w\326.\276\3063\310\276\322\3406=$\013\230\271d\222!\277\225f3=\260\2544\275\026j\235\276\323\333\037=\343\2136=\003}\022\277\220\277t=\250\215\352<\325[\243\276^\021\374=$%\235=)\226\013\277\270\222\335=[\006\\=\\\254\270\276\234m\356=\277\360\212\275\336q\032\277M\333\377=u\224\203\274 A\221\276\271\245\025=\031\347\357=W\262\013\277R\327Z<\203P^=\304%\327\276\310\007]>\202\035\277=\307F \277\312\375N>\211\320\210=\313\370\307\276\177\332h=]\247\021\274\030x\036\277?\2547=\341\264 \275V}\236\276\312\246\334=\231\236\360=\220f\014\277\347\034\274=\363\256\272=\324}\320\276\202s&>E\360\237=%z)\277T:\030>U\366\335<0G\237\276)\\\017>A\274\256<\336\345\n\277\372\263\037>\332\312\013=\331_\306\276\010\254<>i\000\357=\235\327 \277\333\277R>zl\213=W\354\217\276H\027[=\277\np<\365\333\007\277iW\201=\2613\005<\315\001\302\2769\234\031>&Q\257=o\201$\277D\206\025>\253^\376<\355\236\274\276\275\214\">F[\025<\261\334\032\277\330d->\024Y\353<\232\231\231\276\016-\362=\275T\214=\322\343\007\277\2613\005>@\240s=\241\370\241\276\313\240\3329\317\021\271=t\2307\277\341be\276\334\021N\276P\374\210\276H\212\310\273\'\333\300\2748\025\001\277\034\266\355\275\357Y\327\273K\345\235\276%X\334=\277`\367=o\323\017\277\221c\253=\3501\312=b\326\253\276\373Y\314=?\252\241=M\241\363\276\334\020c\2744\200\267\271\246\n\226\276k\363\377;\252e+>\\U\246\276\376`\200\276\272\203@\277\247\\\301\276\274\346\025=\3267\220=\023~!\277\233\217\213=\344h\016\274\265\303\317\276\027\237\">\226\315\234=M2*\277\014Y\035>a\303\323<\005n\215\276\315\350\007=ta$=8\333\004\277\276J\276<gC\376<&\307\235\276\3063\350=\201\223m=7T\004\277&S\005>\023eo=I\242\247\276\270\313~=\246d\231=\304\316\024\277\356\350\377<\313\327e=\2451\312\276\361\3624=\231K\252=\304w\"\277\274\"x=\337\212D;Gr\231\276\353\250\352=&R\232=\240\340\n\277\240O\004>\265\215\177=0d\225\276\337\373[=\274\005\022>C\255I\277\321\"\333\275A\274N\276\361\021\301\276\346<\303=/\3735\275\367;\014\277\034#\031\275\370\026\326\274\233Z\306\276!\352\036>\"\376\241=\235\021%\277\2716\024>$a\337<\273\n\231\276\372\356V=\003C\326<o\236\n\277\270\007\201=?\250\213<\223\035\233\276R)6=\242]\005>\202\347\336\276\335\007\000\276\010\311b\276\227\250\236\276\374p\020<\2178\304=\3058\017\277\256dG\276\3578\205\275\324\324\242\276\261\212\367=>\313\223=\276\207\013\277\2407\325=\355cE=#\025\226\276\\\034U=2Y\\<E/\013\277Jz\030=Wx\027\274\022\245\235\2768\025\351=\364\303\210=?:\365\276\233!U\275\265\247d\274\321t\266\276\312O\352=5a\233\275i\035\035\277+\331\361=\005k\234\274\000:\234\276\232\261\350=\023,\216=z\031\365\276\373\256H\275\2763Z\274\314(\246\276\004\255 >\213\373\017=\327\027\021\277\314\264]>\024\321\257<\262\327\253\276\343k\017>>!{=\352>\020\277\033\022\027>J\322\265<h\"\234\276o/\351=\r\034\220=0d\365\276Y\372P\275S\003M\274\2176\316\276\313-->\034\014u=\270;#\277\035\217\031>o\235\377<\332\033\274\276\233v\261=\204\232!\275\3578\r\277\241\274\017\275&\217\247\274\000W\322\276\177\023*>\236#\222=;\344&\277x\321\027>V\236\000=~\030\301\276\2554)>\244\2148;\237\223\036\277\214\2046>NF\225<\246\362\306\276\340\241\350=\264U\311=\325!\017\277c\362F\275|\n\000<.\034\250\276H\337d=\264Z\240=\\U\026\277\252F\257<4\277Z=\357U\313\276\226&%>\343\032\237=\230\300%\277O;\034>\026\372\340<x\013\224\276@2\035=\330}G:\357\003\010\277\243\002\'=\215\226\203<\004\347\334\276\370\306\220=\005\370n\275\277e\036\277\313\326:=\023\014\'\275\024\256\267\276\016\276\360=\021Q\214\275\272\332\032\277lx\372=\236\006\214\274\036\376\272\276\212\260!>Y\367\017<\333\304\031\277\\\311.>\222^\324<\032\243\265\276\032i\351=\361~\234\275\243u\034\277\203\335\360=V\266\217\2741\261\211\276\326XB<\3441#>s\2356\277\260\311Z\276\255\335v\276\322o\237\276\202\341\234=\305\220\034\273\'\210\002\277\337\211\271\275L\342\254:\310\357\235\276\032i)=}A\013=\351\016\022\277\207\212q=;\033\362<\277\267\311\276\370\245\036>\211\010\237=\233Z&\277Z\330\023>\341(\371<\275\000\353\276\324\265v=e\027\214<\223W\037\277/\025[=\256\326\211<\377\354\247\276X\250\365=\241g\363=\235\235\024\277Ra\314=\317g\200=\017\177\255\276\002\331\013>C\003q=\000:\024\277\230\300\r>d]\034=\236\357\207\276\257\316\261<\332\034\207=F\316\002\277\246\362\366\275u\3453\274g\355\266\276\362^\365=\315t\217\275z\245\034\277\376\324\370=!\346\222\274\363Y\256\276\366]\021>&\341B=:X\007\277\260 \r>\365\021\370<\265T\236\276\3226\236=\354g1\273\2132\003\277{\207\273\275\367r\037\273\372\325\214\276=,\324<\2132[=\361\272\006\277\013`\312<n\247\255<\t\026\267\276\312\211\366=\351|\230\275\375\207\034\277\221~\373=&\376\250\274LT\277\276\303G$>\002\326*<uY\034\277\34756>%\004\253<\2338\331\276\257\261K>\373\006\306=AH&\277\034\360y>\220\371\000=\315\257\206\276\371\243\250<\330\237\204=\306\242\001\277\016O\357\275\26547\274g,\212\276\305\312\350<\322r`=#-\005\277Mf\274<P5\372<W>\233\276CUL=\271\341\267=\027\202\014\277\253x\243<\277c8=?5\236\276\271m\237=\0323\211\273\261P\003\277j\334\273\275b\370\210\272\203/\274\276R\' >\253\004\213<b\025\037\277\004\3425>kE\233<\273\n\231\276\372\356V=\003C\326<o\236\n\277\270\007\201=?\250\213<TR\307\276J\230\351=\264U\311=\346\"\016\2770\202F\275\352\005\037<R\362\232\276\026\243.=f\244\036=\332\376\r\277\344\206_=M\330\376<3m\237\276Sy\373=\016\276p=\266\271\t\277F\010\317=,\177>=\275\000\353\276\324\265v=e\027\214<\223W\037\277/\025[=\256\326\211<\256\323\310\276(a\346=]4\304=+\023\016\277\333OF\275\\\314O<\317\203\313\276U\244\">\'\205\231=z\031%\27733\023>\321\351\371<\036\304\236\276\311\260\n>\013E\272=+\030\r\277\260r\010>C\217\230=\031\034\225\276\3227)=R\230\367\273\177\244\010\277\341\010\022=\016\363e<\270\006\226\276\005Q\367<\005M\013=Z\273\r\2779\321\356\275\201=\246\274$\177\260\276\003x\013>\t\337{=\341\356\024\2770\r\003>P\035+=<\240\234\276\323\206\303<32\010=~:\016\277\006d\357\2750L\246\274\036\376\232\276\376_5=34\036=\352\004\014\277\364\340n=r\243\010=\312\246\234\276\t\337\233=r3\\\272Z\360\002\277\201\227\271\275\336\036\204\271 A\221\276\271\245\025=\031\347\357=W\262\013\277R\327Z<\203P^=O\257\264\276\365/\251=\341\'N=(~\004\277\312\303\002\276\221b\200;Z\022\300\276\205B$>\277I\323;~W\034\277\230\300->P\246\321<\225\016\266\276f\334\024=!\002\316=9\013#\277z5\200=\255Lx<4\242\244\276,+\315<G8\355=0*!\277\367s\212=\006d/\274\032n\220\276\037\366\002=\331\316\367=t^\013\277\355\200\353;bgJ=\266\276\310\276u\253\347=V\361\306=+\023\016\277\333OF\275\\\314O<y\257\312\276\356w\350=\354\332\276=\004\312\016\277\301\344F\275\325\317\033<\266\276\310\276\321\\\347=\221\356\307=]\334\016\277E\332F\275qW/<C\034\233\276x\271H=\222\256\271=X\034\016\277@\241\236<\375\240.=\361c\254\276e\031\342=\034B\025>7O\025\277\210\017\314=k\231\314=\016-\242\276\232\266\377=,\272\265=uv\n\277\231d\004>Ja\236=\377>\303\276\027\232\353=\014;\314=h\320\020\277-\260G\275\355\364\203;\227\377\320\276^K(>\034\262\241=\337\211)\277\365J\031>\327\023\335<\036\334\315\276\0216\234=<\336\244=E\r\016\277\377>\203\275\026\210\036<\377!\235\276\224\3367=\350k\226=\364O\020\277a\032\206<\2343b=\331\010\204\276\362|\206=\\\003;>7\246\347\276\032lj;6\037W\276T\343\345\276\321\005U>.\346\247=Y\372(\277\347\030p>\214\2432=\371\332\203\276R|\374<YL,>\315;\026\277\357\254\335\275\001\023\030\276n\335\315\2764\024w=\342:\306\274$(\036\277\216x2=\347\215\023\275\020\314\241\276\023c\231;4\363\244=\3058\017\277H\033G\276\267`\211\275\221\'\251\276\311\002\346=\365\326\000>]m\r\277\034_\273=5{\340=\365\333\227\276\010U\n>\305\033\331=tF\014\277\244\374\004>\357\345\236=\322\000\236\276`\345\020>\257\005\275<n\206\013\2779\271\037>\332\312\013=\265\246\311\2767\211!>\004Z\232=\313\241%\277w\363\024>\215\230\331<t\322\233\276e\3101=\'k\024=\357 \016\277\362$i=X\376\374<<\240\234\276\017\323\276<\017\230\007=\021\215\016\277\332\341\357\275\316n\255\274\210K\276\276\243\036\">T\3765<w\363\034\277333>0\361\307<JF\236\276\251\274\235=\300uE\273\017(\003\2775a\273\275U\204\033\273J^\235\276\261\277\354=\241i\211=\336<\365\2764\367P\275\212;^\2743\371\206\276\250n\256<\303\365\210=\306\242\001\277\035\224\360\275\340\275#\274\223\000\245\276\214.\357<r\247\364=QN\034\277\242\265b=A\014\364<}\256\266\276C\347\365=\222\006\227\275\237<\034\277\326\377\371=\2239\226\274\227\305\244\276\247\005\257\274\264\3137<\205%\016\277m\034\361\275}$\245\274p%\233\276\232\3565=N\324\022=\236\322\t\277,dn=\024v\021=fk\255\276\021\374\017>t\\M=cz\n\277\031\347\017>\301o\303<\301\255\313\276\255\372\334<#\025\006>\360\205\211\275\314\264]>\017\234\313\277\235h\267\276\327i\004>\204G[\275@\336\033\277\256\365\005>\2076\200\274*W\270\276\374\251\361=:=\217\275\276\023\033\277\344\367\366=\3711f\274\247\256\234\276\304\320j;\354\211\256=\263^4\277\321Wp\276F\2663\276x\013\224\276@2\035=\330}G:\357\003\010\277\243\002\'=\215\226\203<\017(\313\276\232%!>@\371\233=t\265%\277l[\024>\376e\367<\322\000\236\276^-7=\341\322\221=Q\024\020\277!w\221<\235\273]=fk\315\276*\343\237=Z/\246=\204*\r\277YN\202\275\333\207<<\000:\274\276\277+\">5~a<q\003\036\277\362\3156>\311\002\246<?\221\327\276\3642J=\254\255X\275\226x \277D\205*=\251\240\"\275\321?\301\276\376}&>\352\"\005<\255\372\034\277S\3136>\245\207\241<}y\241\276~\247I;\326;\274=\305\2179\277\032\027n\276\353\342V\276\266\276\310\276\321\\\347=\221\356\307=]\334\016\277E\332F\275qW/<\311q\267\276\331_\366=\265\302\224\275a7\034\277a\340\371=\264X\212\274\004\255\240\276\211\\p=\270\256\230=\036\033\001\277\217\033\376\274i\304\314<d;\277\276z\246\027=\221\326\230=<N!\277E\270\211=\027\3247\274\310\007\215\276\317\272\006=\275\337h=\254s\004\277\300\351\335<\254\343\370<\\\003\233\276U\024/=\277\016\034=_\007\016\277\227\253_=\t\373\366<\224\207\305\276\212\260!>\313+\227=&\344#\277:\314\027>\356Z\002=X\220\266\276,\267\364=Aa\220\275.\312\034\277\270\344\370=\220\370\225\274Q\024\250\276\215b\371=\354\244\276=\266\276\020\277\367;\324=\235dk=\3058\277\276KY&>\010X+<\313\241\035\277\216#6>:\313\254<\371\332\263\276|\n\000>\237\220]\275R\n\032\277\253x\003>\2660\213\274\310\007\315\276\020\222%>\2405\237=\331B(\277\017(\033>r\304\332<{\240\205\276\367\255\326\274T6\254<\331\224\373\276x\354\347<IH$=0\330\215\276o\325\365<\361\330O=\307\327\006\277\346\006\303<\334\324\300<x\227\233\276=~\357=\332\346\246=al\001\277\332\341/\274\023\265\264<\321t\266\276\312O\352=5a\233\275i\035\035\277+\331\361=\005k\234\274t\230\237\276\340g\234=\374p\220\272\3333\003\277\367\"\272\275\235\331.:^K\250\276\r\340\355=_\014\005>\214\333\020\277\231\014\307=\026h\227=p\231\263\276\372\354\000=\032\244\300=1\261!\277E\270\211=:\0028\274q\346\267\276\321\005\365=\265\215\237\275{\275\033\277J{\003>]\305\342\274\224\207\305\276\212\260!>\313+\227=&\344#\277:\314\027>\356Z\002=^\021\254\276=a\t>\205]T=C\347\r\277\005\027\353=\370\210\030=9(\241\276^\364\225<0*\251=\005\243\002\277\366\356\017\276\032S\260\274\207P\345\276\222=\202=\272\275\244<\026\030\"\277\256Fv=6\222\204<\2338\331\276\257\261K>\373\006\306=AH&\277\034\360y>\220\371\000=\342u\315\276\214\024J=\\\256~=\300>\"\277\211\'{=\006\361\201<\212<\251\276\350\365g=\2237\240=\277\361\025\277\221\325\255<^\325Y={I\243\276\303\273\334=\236)\364=\030}\r\277xA\304=\232\010\333=`v\217\276y\006M=\373\352\252<\315#\007\277\306Nx=\002\331k<\321?\301\276\000\214\347=Gw\320=\375\237\023\277Z\rI\275N\264+\273\347R\274\276r\212N=\263\225\027\273>\256\035\277\206U<=\361b\341\274\357r\241\276\006\200\252\274w\274\t=\214\204\016\277\222\"\362\275\212t\277\274/Q\235\276\324}\000>!#\200=\270@\n\2773\033\004>~\001}=\t\247\245\276\206 \207\274\3710\373<\355\r\016\277l\317\354\275\336\221\261\274\265\303\317\276\027\237\">\226\315\234=M2*\277\014Y\035>a\303\323<\352\t\333\276\221F\305=\321\037\232=1\231\022\277\'\024\202\275\342\222\343;\256\330\317\276\272\275$>\260\002\234=\367\351(\277\211\265\030>t\323\346<!v\326\276\037J\264=\245\371\243=\257w\017\277\272\204\203\275\363rX<\3058\317\276\346?$>\260\002\234=<\367&\277\333m\027>-\314\002=\241\241\237\276\367\253\240=\227\345\353\273\230n\002\277\000R\273\275\252\2315\273\272\203\250\276*\035\014>\307Hv=\222?\010\277\334\200\017>x\265\034=\273\n\311\276k\202\350=a\250\303=\351\324\r\277\010>F\275\270\261Y<\307\200\274\276E/#>\342\002P<\216;\035\277Lq5>\372\360\254<g,\212\276p\230\350<\322r`=w\363\004\277Gu\272<i7\372<\264\037\231\276%\002\225=\263\354\311<B\317\346\276w1M\275\321w7\274\237<\334\276\2613e>xB\257=\276\274 \277\260\217N>\362y\205=\226\347\241\276(\235H=\177/\205<\271S\022\277\002\233s=\246b\343<\353\305\320\276\254t\227=\275o\234=I\364\022\277b\276\234\275dsU;t\322\233\276e\3101=\'k\024=\357 \016\277\362$i=X\376\374<:@\240\276\267%2=\034]\245<\351\016\022\277\346\350q=\024\005\372<\020u\237\276\242\232\022;\013\226\252=77\036\277\366\227]\276\236\357\347\275\020\222\245\276\353;\237=\250\034\223\275\005\243\002\277\306Q\271\275`\257\260:\021\215\316\276\370S#>\314\270\251=3\341\'\277[\266\026>\210\331\013=\325&\276\276\255\206$>Y\372P<e\337\035\277*W8>\317\363\247<Xs\320\276h\221->X\216\220=nn$\277\256\236\023>\\\314\017=\3377\256\276\342;\021>\366\225G=\022\332\n\277r\212\016>\310a\260<\310\007\315\276\020\222%>\2405\237=\331B(\277\017(\033>r\304\332<\210K\236\276\017\320\235=\002a\247\273\313\333\001\277\221{\272\275s0\0339\251j\242\276R\017\321\272\366\263\270=@\207I\277\260=s\276\303G\204\276\316S\235\276\362B\272<\236\263\005=|\233\016\277:@\360\275\031\310\263\274Gr\211\276$\3561<\251\331#>\262\2357\277\347\306T\276\346\221_\276\\ \261\276`\261\006=\327\300\326=\030&\033\277\037\022~=\207\245\201<77\246\276\206r\002>bj\213=I\364\n\277\271\302\373=\243=^=\275\000\233\276H\251D=\243V\270=\244\210\014\277\376\n\231<\222@C=0\236\261\276\351\232\t>\373w\275=\203\335\000\277\366\317S;\025\221\341<q\346\267\276C\347\365=_z\233\275\273\325\033\277\320\017\003>X\344\327\274%\351\252\276rP\002>\016\022\";\356\316\n\277\177j\034>z\303\375<g\017\324\2764h(>\365G\230=\345\n\'\277s\205\027>\262*\002=\034\231\267\276C\342\036>\212\3100<\252\361\032\277\004V.>\3021\313<\253x\263\276h\3525=\321A\227<\262F\035\277\'\367;=\336\314\350\274\004\034\322\276e\245)>\216\347\223=P\215\'\277\246\320\031>\003&\360<\210F\267\276\343\210\365= A\221\275z\245\034\277Z\365\371=!\346\222\274@0\267\276\t\247\005>\030\355q\275\247\313\032\277\300x\006>7\215m\274\274\313\265\276\310\315\360=1[r\275\366(\034\277\3122\004>\351c\276\274\202\377\235\276\201{\036<\366E\">\340\201\241\275P\337\202\276\316\337\\\277\235\327\230\276\276\207\013>\216\222\327=\016\370\014\277\016\363\005>$^\236=\221D\277\276\344\240$>\272.\374;Z\360\032\277=~/>\364\374\351<\274\263\306\2760\r#>J\226\223=U\023$\277b\020\030>\032O\004=\376C\312\276\214J*=\236\354f=\335\322\"\277\347\246\215=\240\244@\274\3024\234\276g\325\347=\324_\217=\365\333\367\276\222\354Q\275\257\320\207\274k\267}\276\232\354\037=\026\030\022>\302\372\377\2760\330\315\275\2721\275<\244\215\303\276p\224\034>\316\214\236=\367\351 \277\343\307\030>\352\260\002=\210K\276\276y;\">\337o4<\350\331\034\277\274\0052>\227\251\311<\262\364\221\276\331\351\007=\330\201\363=\"\303\n\277\236\227\n<\230\030K=<\367\236\276\007\265\237=\234\371\325\273]\247\001\277\270\035\272\275\364\300G:\357\254\235\276\360\337\234=\230\336~\273\370S\003\277\016\277\273\275\017{\241\272\346\005\250\276X\377\007>@k\236=\224j\017\277\231\r\022>\221\234\314</Q\315\276\020\222%>\300\354\236=*:*\277\224\274\032>\tP\323<\304%\327\276\310\007]>\202\035\277=\307F \277\312\375N>\211\320\210=\027\202\234\276Y\335\352=f\203\214=S\\\365\276\335\357P\275\217\304K\274\260\254\204\276\243\3151=\31667>\350\237\360\276h\350\037<\017\321(\276x\264\241\276\213O!>\231F\263=\t\376\017\277x\356=>\005\242g=\235h\267\276\327i\004>\204G[\275@\336\033\277\256\365\005>\2076\200\274<\240\234\276\323\206\303<32\010=~:\016\277\006d\357\2750L\246\274\244\374\244\276\0257.=\320\321\312=:\006\024\277\357\251\234<\031sW=PS\253\276\345_K<\235\021E>h\221\355=aO{\276\037\364\264\277n\213\242\276\200\326|;>\005\240=\362^\025\277\031\347O\276,\232\256\275\226C\233\276\216\036\377=\320\2345=\3063\010\277\324\202\327=\271\3752=\320\325\306\276\035 \030=g\357\014=h\005&\277\253\354{=\271\251\201\273\353\305\320\276j\023\'>@\030\230=\2402&\277\225}\027>\201 \000=\205%\276\276%z\331=\026i\202\275\231*\020\277\177h&\275Ra\354\274\026\023\253\276\346y\020>\0049h=fN\017\277\266\204\034>\345d\342<\373\005\233\276\217\3442=n\304\023=6<\r\277\024\321o=Y\211\371<\266\276\310\276\321\\\347=\221\356\307=]\334\016\277E\332F\275qW/<\367;\264\276\t8\004>\255\246k\275\226\347\031\277:\006\004>\272\332\212\274WC\202\276r7\010<w\204\023> {\r\277&\337L\276C\342>\276Q\024\230\276[yI=k\237\016>p|5\277D\206\325\275w\020[\276-C\314\276\371\017\351=\024w\274=\335\230\016\2771\227T\275 &a<]\376\243\276\227V#>\310\322G=\367\006\017\277\275RV>\216\005\005=\004st\276\021\3404=\030\354f>j\366\320\276\237\346\344\274M\276\021\277\322o\237\276\202\341\234=\305\220\034\273\'\210\002\277\337\211\271\275L\342\254:\337O\275\276\223\251\">\340\200\026<\3333\033\277\245\367->ly\345<\231\360\253\276\036m\334=\232w\034>(\017\023\277\324\362\303=5c\321=\341\177\213\276\231\270\025=\215\013\007>\201x\r\277.\004\031\276\033\330\272\276\235\021\245\276\364\305\336<s\204\014=\215]\n\277\342\001\345\275\320D\330\274\327\335\234\276\217\030\275<;\211\010=\243X\016\277^\327\357\275\335\227\263\274\274t\263\276\222\353&=\236#\362<\345~\037\277\336tK=\215\'\002\2751\353\265\276\315\036\350=\245\331\234\275!\223\034\277/\206\362=\220\203\222\274P\252\235\276E\022\235=\'i~\273\3333\003\277\"\253\273\275\275:G\271\254\213\273\276\001\244\366=\204\330\271\275\367\006\037\2774\200\367=\337\246\277\274\027\361\235\276\005\244\235=\341\323\234\273e\215\002\277\241\363\272\275\330}G:\036\247\270\276\272\367\360=\332\221\212\275\206\346\032\277\341\227\372=\322\342\214\274rP\322\2769\264(>\014\346\217=\314(&\277\365\333\027>\254R\372<\226C\233\276~\031L=\031v\270=\372\325\014\277\236z\244<\357 6=\246\n\246\276\235c\240=V\231)=\336T\364\276\rS[\275\332s\031\274?\035\317\276\266\241\242=\037\363\241=O\222\016\277\366~\203\275Q\243\020<\205%\276\276%z\331=\026i\202\275\231*\020\277\177h&\275Ra\354\274hy\256\276\245\024\364=\315\351\362=\270;\023\277\313J\323=I\236\213=\304%\327\276\310\007]>\202\035\277=\307F \277\312\375N>\211\320\210=\221\233\261\276\343\215\014>\3752X=\2201\017\277\225e\010>z\032\220=\260=\223\276\263\010E=Uj\026>\004s<\277\235\272\362\275!\352~\276\242z\273\276/\210\210=b\201\217=K\253\t\277Rc\302\275\276\240\005\273K\260\230\276\250\306\013>=,\324=Y\300\014\277,\237\005>\351\322\237=\344,\214\276\n\332\344:\373\"!>\310\007\255\276.\255\206\276@\023\t\277D\372\235\276\355\236<=\274\255\224=\335\357\020\277\233\036\224<Q\332[= A\241\276pB\341=\356\"\254=\202\213\r\277\322\251\353=\323\274\243=g\270\241\276\013F\345=R\266\250=\252H\r\277\304\261\356=\301X\237=k\237\316\276Z\360\">Q\202\236=_A*\277\355\r\036>S\224\313<\270\006\226\276\r\032\372<\221\231\013=\004V\016\277{\203\357\275\347\214\250\274g\233\233\276=\3277=\346\005\030=!\223\014\277a\246m=\322\032\003=\365\020\275\276\300[ >aSg<\323\237\035\277\367;4>\302\026\273<b\333\322\276\033\3650>\026\024\206=\320\355%\277e\374\033>\332\221\352<\021\307\232\276*p2=\230\340\024=e\344\014\277\024\321o=\022\027\000=\273\362\231\276^\201(=\205\266\034=\265\340\r\277\255\023W=-\350\275<\303G\264\276\346y\360=\034A\212\275\022\275\034\277\177\207\002>\205]\224\274\3058\317\276\346?$>\260\002\234=<\367&\277\333m\027>-\314\002= \014\234\276f\202a<\367\312\274=N(\034\277\366\177.\276\000:\314\275\273\233\247\276\231\325;=\352\354\304=\267\177\025\277h\004\233<\333mW=\330G\327\276*\251\263=\203\302\240=\361\021\021\277-\317\203\275\037\367-<P\374\210\276\032i\251\273%$\322\274%\006\001\277#\241\355\275\302\204\321\273)\226\333\276\005\246S=>\315I=(\017#\277|\264x=(dg<\244\215\303\276p\224\034>\316\214\236=\367\351 \277\343\307\030>\352\260\002=e\302\217\276\324\323G=\265\305\265<.\034\010\277\336ru=n5k<|\017\227\276\277\267)=\320\017#\275\217\215\010\277\315W\t=\306Oc<q8\223\276\314\262\'=\371\236\221\273\325x\t\2775A\024=@\367e<\006G\251\276\344,\354=\355\267\226=\207\212\021\277~5\007>\204)\212=|\270\204\2764\275\004=\335\322*>8\020\n\277\372*\271\275\357\000\017\275\251\274\235\276\021\036\355=\256\235\210=\336<\365\2764\367P\275\212;^\274\265\303\317\276\027\237\">\226\315\234=M2*\277\014Y\035>a\303\323<\226C\233\276\216\036\377=\320\2345=\3063\010\277\324\202\327=\271\3752=\337\032\250\276\036\207A;\365\020\315=<\367>\277\236\322a\276\263\357j\276IK\305\276(\2332>\315\316\"\274\260\033\036\277\241\3264>M\371\220<\035=\236\276f\2078=\214\235\260=wJ\017\277F\316\302<%;6=m\377\312\276\230Q\354=\373\255\275=\006\201\r\277m\033F\275\266\205g<PS\253\276\345_K<\235\021E>h\221\355=aO{\276\037\364\264\277G\346\241\276\362\353\007\273\2444\273=\3603V\277#\276\203\276Ou\230\276\255\206\244\276t^#=vR\277=\375\207\024\277>\312\210<\t\303\200=\335\230\276\276?R$>\307*%<6\310\034\277\210K.>B\010\310<\251\207\250\276G\257\206<\222yD>}y\301\276l\354R\276\371\0179\277\211)\241\276*\346\240=<0\000\274c\013\001\277u\223\270\275\364j\200;\314\321\243\276\034\320\262=j\025==\3436\372\276\022\372Y\275\351\020\270\274\200e\265\276W|C=3oU<\262F\035\277\'\367;=\336\314\350\274k\202\250\276d#\020>\356^.=\210h\004\277jM\023>\216\312\r=N\234\314\27677&>\2648\243=\224\207%\277T\214\023>j\024\022=\362\007\223\276\203R\264;P\3748>\234P(\276\005\305o\2764\242d\277\\\003\233\276\004\2220=\212Z\032=K\345\r\277\227\253_=\241\242\352<g\270\241\276\013F\345=R\266\250=\252H\r\277\304\261\356=\301X\237=\272\332\212\276\035qH<M\333\037>\226&\345\276\323\274c\276\010=\233\276p|\275\276\205B$>:\222K<tA\035\277g~5>Ov\263<\211\265\250\276\205\353\221=82\317=\306\334-\277i\214\326\275\357\254\335\275R\362\232\276\026\243.=f\244\036=\332\376\r\277\344\206_=M\330\376<\254\213\213\276%\006\001=r\207M=\356%\005\277\341~\300<\037+\370<M\025\214\276i\374\002=v\336F=\010\254\004\277\006\205\301<\361E\373<<\240\234\276\323\206\303<32\010=~:\016\277\006d\357\2750L\246\274?\221\327\276\3642J=\254\255X\275\226x \277D\205*=\251\240\"\275d;\277\276z\246\027=\221\326\230=<N!\277E\270\211=\027\3247\274$\013\270\276\317I\357=b\334\215\275\027\016\034\277\217S\364=\330\021\207\274\013$\270\276~\035\370=\316\336\231\275\273\325\033\277\320\017\003>\275:\307\274<\240\234\276Mf\274<\3125\005=\365\363\016\277$\177\360\275\335\227\263\2746\253\216\276\273\355\002=]\277\000>;\302\t\277\010\343\'<\266HZ=\3058\277\276KY&>\010X+<-\262\035\277d@6>g\266\253<\016\370\214\276b\206\306<\000o\001>\036\304\016\277\316\337\204<\261\334R=p|\275\276\205B$>:\222K<tA\035\277g~5>Ov\263<mV\315\276\266\241\242=kI\247=\331\353\r\277\211\263\202\275IH$<\261m\241\276\320\017\343=%\262\257=\177\301\016\277\314@\345=\367\224\234=\221\233\201\276\032\024M<\026\030\022> {\r\277\345\355(\276\201\223\255\275\303G\264\276\346y\360=\034A\212\275\022\275\034\277\177\207\002>\205]\224\274\002\361\272\276\265T\036>\220\202\247<5\230\036\277\022\2107>\256\271\243<\370\374\240\276\266\020\344:+l\306=\237v \277\254\250a\276\360\212\000\276\266\204\254\276\355\365\016>\205\013y=\204d\021\277n\027\032>\255l\237<\371\275\255\276\\\3433=\271n\252=\304\231\017\277n\246\302<\032l*=@\030\210\276\272\205.=fN\327=\371I\r\277\344\332\320\275\365\016\267\274\353\377\214\2768\242\373<pyl=>\256\005\277\210\270\271<\211~\355<\\ \261\276`\261\006=\327\300\326=\030&\033\277\037\022~=\207\245\201<\326\342\263\276^\200\375=\034\353b\275 $\033\277\375\237\003>\310\231\246\274\271\307\242\276\301\221\240=\233sp;\036\341\014\277\353s\365\275\035\254\377\274YL\214\276\254R\372<\201?<=,+\005\277/\300\276<\2029\372<\313-\315\276\370\302$>l\313\240=;6*\277y\036\034>\234M\307<JF\236\276\220\367\352=\211\t\212=u\223\370\2764fR\275\361I\247\274@0\267\276\t\247\005>\030\355q\275\247\313\032\277\300x\006>7\215m\274>?\314\276\362\007#>\260\214\255=,\016\'\277j\274\024>j\024\022=\033\r\240\276\031\347o=\004\377\233=\014Y\375\276\314F\347\274\256+\346<\016\204\244\276\374\373\014>\224j_=&\001\n\277\204*\025>\367>\025=\237<\334\276\2613e>xB\257=\276\274 \277\260\217N>\362y\205=B[\256\276\013\357\362=E\365V=\363Y\016\277Q1\016>$\r\216=\017\321\250\276\304\231\237=\353V\217=\336v\361\276\323/\221\275\352\003\311<\301n\250\276c\271e=\364j\240=\300\004\026\277\253\257\256<^\325Y=\016\276\360\276e\213\204=I\330\267<\346y \277\222ux=\022M\240:<\240\234\276\217\030\275<\3125\005=4\205\016\277^\327\357\275\032\336\254\274$\013\270\276\317I\357=b\334\215\275\027\016\034\277\217S\364=\330\021\207\274\213\246\243\276\242^0=^\361\224=\246\325\020\277y\260\305<\255l\037=\336T\224\276\247\352^=\271\307\022>\n.&\277\362#\276\275\251\022\305\275\237v\310\276\323\336 >nP\233=\313\241%\277w\363\024>N\270\327<B[\236\276\237\3459=\357\313\031=L7\021\277\240\245k=\260\347\353</\335\244\276\274=\010=\002\234^\274N\356\007\277\337\246\277<\367\346\267<&\307\215\276\370\026\326<\350\336\003>\236\014\016\277&\310\210<\261\334R=[\224\231\276\366z\367=\360\3706=<k\007\277\370\252\325=s\272,=YQ\223\276\255\372\034=j\334\033\2741B\010\277\364\300\007=\203\333Z<n\213\242\276\200\326|;>\005\240=\362^\025\277\031\347O\276,\232\256\275\313\370\307\276\177\332h=]\247\021\274vO\036\277\356\230:=\223Q%\275\317I\237\276\352\005\237=%wX\273\344\275\002\277s0\273\275f\331\223\272Y\300d\276H\300(=2wM>\'\332\365\276T\374\337<\336\257B=\315\344\233\276\t\341\021>\207Pe=\353\034\013\277\024\313M>W\352\331<\235h\267\276(\362\004>\233t[\275\037\205\033\277\256\365\005>h\263j\274}\"\237\276\374p\020<\300%\300=~W\014\277S\005C\276;\310k\275\\U\226\276\312\335\347;\274t3>\255i\356\276\224My\276:@\020\277A+\240\276X\220\006>C\311$=?5\006\277b\241\326=N\320&=\234\371u\276\341(9=|\'f>\003`\334\276T\304i\274\236A\323\276\336T\224\276\247\352^=\271\307\022>\n.&\277\362#\276\275\251\022\305\275\214g\220\276\316\212\250<\357\3412>\235\200&\277)\\/\276\246\nF\276P\374\210\276H\212\310\273\'\333\300\2748\025\001\277\034\266\355\275\357Y\327\273\341(\231\276\300\225\014>\333k\201=K<\010\277t\352J>\3332\340<\300\225\214\2760\202F<\363\310\037>\363\002\314\276\242\264W\276\206U\214\276\3063\210\276\316\341\332<\013c\013>\237\310\013\277,D\207;\336\253V=\212\260\261\276\232\262\263=\000\002V=\326V\004\277-`\002\276\263\010\305;\\Z\275\276MJ!>UQ<<\252`\034\277|a2>\311\034\313<\033\022\247\276=I\372=\025\343\234=\335\265\014\277\253\t\002>\356@\235=X9\264\276\217o\357<\361,\301=\372~\"\277V\325\213=\307JL\274U\366\235\276\251\370?=\321\222G<F\316\n\277n\336x=\252)I<\256\022\274\276\222[\263=<\331\r=\024\355\002\277*R\001\276Z\202\0149`<\223\276\357\376\370=\017\355\343<\334)\005\277\010\003\017>\227\214#=<\203\226\276e4\362<\1772\006=Y\027\017\277\257_\360\275\276/\256\274\205%\236\276a\213\235=\3066\251\273!<\002\277\034\\\272\275\275:\3079\256\330\317\276\272\275$>\260\002\234=\367\351(\277\211\265\030>t\323\346<\265\340\245\2765`\220\2742;\213<\311Y\020\277Y\206\370\275\024\005\372\274\220\275~\276czB<\023\n1>\234\026d\277\337\303\345=\035\003\022\276\373\005\233\276\217\3442=n\304\023=6<\r\277\024\321o=Y\211\371<t\230\237\276L\375\234=\265\376\026\273\214\276\002\277\356_\271\275\307b\033;P\337\302\276\r\211\033>\034D\253=nn$\277\351e\024>?R\004=X\342\241\276\255\027\003>F\315W=\352\225\n\277E\r\006>_\013z=\253x\263\276h\3525=\321A\227<\262F\035\277\'\367;=\336\314\350\274\000W\322\276t{)>\236#\222=\032\213&\277\353\342\026>\030\005\001=\212Y\237\276Z\017\237=\0008v\273\345\320\002\277f/\273\275\rl\2259\332\217\244\276\324+\005>\217\337\273=\014\002\013\277;p\016>\026\3329=\206\311\244\276\350\336#>\201vG=\350\274\016\277\327QU>m\033\006=/Q\275\276\017E!>Yj=<\217S\034\277\203L2>\353\341\313<WC\202\276r7\010<w\204\023> {\r\277&\337L\276C\342>\276mV\315\276\266\241\242=kI\247=\331\353\r\277\211\263\202\275IH$<\213\246\243\276\242^0=^\361\224=\246\325\020\277y\260\305<\255l\037=IK\305\276(\2332>\315\316\"\274\260\033\036\277\241\3264>M\371\220<s.\245\276\256\274$=\216v\274=E\022\025\277\365,\210<j\204~=\024\256\267\276\313\234\356=A\364\204\275\272\332\032\277lx\372=\236\006\214\2741\231\352\276\3167\202=d;_<\022k!\277O\256i=<K\220<R,\327\276t\230/>\373\352j=f\332&\277\351`\035>VJ\317<\204\360\250\276\217qE=\266\332\303=\366z\027\277\331\226\201<![V=\302/\245\276\315\257\346=x\271\250=\207\212\021\277\336\223\007>3\340\214=\337\303\245\276B\322\'=k\326\271=\037\200\024\277>\312\210<\t\303\200=\0324\224\276\006cD=\254\216\234<\323j\010\277\025\037\037=\237;\301\273a\375\177\276\340hG<4\364/>\204\236e\277\245\332\347=\232\353\024\276\353\305\320\276\254t\227=\275o\234=I\364\022\277b\276\234\275dsU;k\267}\276!\261\035=\026\030\022>1\010\374\276\347:\315\275\024Y\353<u\037\260\276\325\225\017>\020vJ= \014\024\277\255L\370=\365\274\033=\260U\222\276\304\355\020=\'\203\343=/i\014\277e\343A<\013Fe=\351Cw\276\212!9=|\'f>\003`\334\276T\304i\274\236A\323\276\241\271\216\276\200\265*=\221H\333<\340\276\006\277\\:f=\205B\204<\313\020\347\276\206\223t=Z\233\006=_^ \277\360\242o=\300\3178\273\307\327\256\276\243\223%=\321]\222=\317\332\035\277\300\256\246<\277,-=\301\255\233\276\217\245\217<\025\307\301=\226&\005\277\tP\023\276v\302\313\274\266J\320\276\320\017#>\226\315\234=M2*\277\014Y\035>a\303\323<0\330\215\276o\325\365<\361\330O=\307\327\006\277\346\006\303<\334\324\300<\313\370\307\276\177\332h=]\247\021\274vO\036\277\356\230:=\223Q%\275\010\003\237\276f\332\236=\000\217\250\273t{\001\277\331\007\271\275\35790;\256\323\230\276\321?\301<\377?\016=xb\016\277\026\030\362\275~\251\237\274\032Q\252\276,\267\024>}!\344\273\010\224\r\277\306\242)>\360\337\274<~\251\177\276\271\2161=`\3450>\347\343\372\276\233\350\363<\355\017\024=Y4\255\276>\256\315=$a\237=M\241\363\276\336\347x\274Ug\265\272\251j\242\276R\017\321\272\366\263\270=@\207I\277\260=s\276\303G\204\276\272\275\304\276\360\304\354=\323\277\304=\270#\014\277\322\253A\275\021\305d<\t\247\245\276\206 \207\274\3710\373<\355\r\016\277l\317\354\275\336\221\261\274\t\212\257\276\000t\330=\352\225\022>/\243\030\277\323P\243=\273\'\317=\253&\250\276YNB=\233u\306=\365\363\026\277l@\204<\2068V=\315\257\206\276\371\243\250<\330\237\204=\306\242\001\277\016O\357\275\26547\274?\343\262\276o\272%=#\367\364<\340\271\037\277Q\364@=\276L\024\275J\007\233\276\334\325+=I0\025=o\360\r\277\022M`=\345B\345<PS\253\276\345_K<\235\021E>h\221\355=aO{\276\037\364\264\277s.\225\276\353\341\013=\334\235\365=\220\332\014\277\232\351\336<\325w~=\335A\254\276\271r\366;\214\331\262=\251\373\030\277Lq5\276\010\224\315\275\235h\267\276jM\363=\326\377\231\275\273\325\033\277\320\017\003>]\305\342\274;\252\232\276/\335\004>!\225\302=Lq\r\277L7\t>\262\275\226=\'k\264\276~W\004>r\214d\275\n\200\031\277\255\206\004>o\270\217\274-&\226\276\256f\035=K<\340=\364\246\n\277\244\247H<H\301S=R,\327\276\033\3650>\373\352j=\250\030\'\277 {\035>\363\003\327<\263{\242\276\252\266\233\271J\013\267=\"\3408\277<\210]\2768\020R\276=,